#version: bpe
e n
e r
i n
_ t
c h
_ a
_ d
_ w
_ s
_t h
n d
i e
e s
_ i
a t
o n
_ m
a s
a n
r e
_th e
_ b
_ h
s t
i t
_ o
_ e
l l
_ u
_ g
o u
o r
i ch
_ f
a r
_ in
_ I
in g
_ n
_ S
l e
i s
_ c
_ p
_d ie
t e
_ A
_t o
_ v
i r
_e in
a l
_o f
_a nd
o m
i g
_ l
_ W
en ,
e d
_ k
_u nd
_b e
u n
_ z
u t
u r
u s
_d as
e l
i on
en t
_ T
_th at
_ y
e t
_ D
en .
_ M
r o
e m
_h a
_w e
er e
i c
r a
_y ou
_ B
_ E
_d er
_w h
h r
v e
_z u
_i s
_w ir
i l
o w
t er
_i st
ich t
_ G
o t
_i t
e in
_a n
a m
b er
un g
a ch
e ,
' s
i er
l ich
in d
s ch
o l
u f
s e
i d
_ U
_ re
_ F
a ll
g e
_ K
_v er
_i ch
_u n
_s o
_ on
_ P
i m
_ es
t en
_w as
k e
_ L
_s e
c t
a y
_T h
_A nd
_ H
_s t
t ,
s ,
_a l
_ er
v er
d e
_ N
_th is
_d en
_s ie
a g
u m
_S ie
a nd
b en
_ j
_ -
c k
ü r
s .
u ch
l d
_a ll
_n icht
o p
t .
at ion
_v on
_ "
_f or
_das s
_- -
an n
e it
en d
_ein e
_ R
_a b
e h
_al s
_ r
_a uf
_ V
_i m
e .
e ll
_d o
t h
_U nd
en n
i ll
_m it
_l i
f f
l y
it h
es s
d er
es t
_a re
all y
_ J
_s ch
i st
_w ie
_m an
is ch
_n e
_w ar
a us
u l
_ha ve
_g o
_w ith
_ C
_m e
c e
_ le
_S o
a b
a u
_die s
_un s
_the y
er n
_s ich
g en
_h e
i b
u st
_m o
a d
_c an
_a s
_ Z
_I ch
h n
_w or
_ O
k t
o s
h t
d en
_p ro
ou t
ö n
_s ind
_c om
u nd
ü ber
_wh at
_ 1
ou ld
o o
_s p
er s
' t
_a t
p p
_I n
_f ür
_S t
_g e
_f r
_e x
_s h
as s
an t
_h at
_n ot
0 0
w e
or t
_ab out
_a us
ie l
i k
i v
_Th e
_u m
_W e
a h
_ ch
b e
o g
a hr
f t
ön n
_o r
o ll
_s om
ar t
_ über
_k önn
h er
en sch
_m y
_w er
_d es
_L e
_D ie
_D as
_d em
_E s
_S ch
_p e
_th ere
q u
m er
_W ir
_d e
m en
' re
_m ein
in k
i ve
op le
es e
o d
an g
_I t
_c on
_m a
it y
o ch
_E r
_pe ople
_die se
z e
_fr om
_k n
i en
u te
u re
t w
_t r
es ch
a p
_s ein
_I '
_a r
ig ht
_ha ben
_li ke
_w enn
_als o
_on e
_be c
_b ut
_o ur
at e
_ein en
aus e
er ,
_B e
_o ut
_it 's
oo k
_g et
is s
_d a
_kn ow
_j ust
e ar
_ 2
te d
y ,
_P ro
in e
_th ing
_A r
es ,
ie s
il d
_p l
_A n
_o der
_ Y
ic k
_v or
i z
_the m
u g
as t
_B ut
ou g
te ,
h l
_th ink
_i f
h en
_ ent
_s ag
or m
ig en
_wh o
_u p
et z
e ct
_th ese
p er
an k
_h er
_u s
i f
_m ach
u d
_k ann
ou nd
_V er
ou r
_ver y
_a ber
_go ing
es .
_A l
_M ensch
_b y
_a uch
a in
a ck
el t
_ein er
_ein em
_s a
_wh en
_A ber
_d i
ter n
_a ct
_U n
_g en
ig e
_you r
_d ar
ol og
s s
_n ach
_n ur
en s
ar d
. "
_ha d
_som e
_y ear
_mo re
p l
ä nd
i al
o b
a k
_ en
a c
_bec ause
_wir d
_w ould
_se hr
_e tw
_R e
_t im
re at
r u
_w ill
_t e
_d on
t o
_G e
_h ier
er en
b le
er .
ü ck
p t
y .
ur ch
ö r
_e ver
it t
ä t
n t
ä ch
isch en
o nd
_wh ich
p le
_m ich
_w ere
_a m
_l ook
_se e
_ha b
_h ow
_re ally
_the ir
ung en
o se
am e
a ,
_ist ,
u ally
a re
ke it
h ing
_g ib
_wor k
an s
_T e
_J ahr
_w ur
om m
_k ein
st e
_d ann
_g eh
hn en
st en
h e
oug h
_g ro
n 't
_ ♫
id e
_ –
a ge
on g
_v ie
_g l
_p er
_w ay
ch n
h al
_h ere
an z
d u
ou s
h re
_h as
er t
_wor ld
_ qu
h eit
ig n
l ie
b eit
_n och
w o
_s te
_It 's
u b
r ie
_i hr
_Y ou
_etw as
ä n
_I' m
m ent
_S p
in n
o re
a ft
_Th is
t z
ble m
_o th
_Mensch en
v en
_m ir
_in ter
a ct
ll e
ing ,
i p
_ever y
_wer den
_Al s
_in to
_p r
is e
al k
_c ould
_act ually
_s ay
_E in
_könn en
ier t
_m us
_be t
_a g
_dies er
a uf
_me hr
_f e
y st
on e
p r
_z ur
_d urch
_gib t
_g r
_don 't
_wh ere
_n ow
_w ant
_that 's
_th en
_j ed
_b ra
_v iel
ing .
ig h
yst em
_d id
_W h
s el
isch e
te .
_N ow
n e
_W enn
f orm
_som et
ul t
r ing
_F ra
_oth er
ic al
it e
u e
t en,
k lich
_s c
_di ff
_The y
_o b
_g es
o st
g lich
_be i
_ ro
_ha pp
ill ion
_f ind
_an y
_ma ke
_Z eit
_be en
_be g
ä r
_c l
p h
_C h
_com p
z u
f ach
f l
_m ö
i le
a .
_n o
f e
_ha be
ier en
_ne ed
_zu m
_Le ben
_sa id
_all e
a ke
_t ra
ä hr
ir st
ut z
_uns er
_o ver
_w ür
ar k
_W elt
s p
at er
_wir klich
_H e
_s el
' ve
_G r
_b l
i ent
er st
_somet hing
_gro ß
_p art
lich e
a le
_b ack
_w o
ch t
etz t
i ver
w er
_g ot
_un ter
ch en
_th an
ü ss
_m uch
im m
chn olog
_G esch
00 0
_t wo
ab le
_ein fach
_ 3
_b u
_i hre
_k ind
f ü
m al
_thing s
el n
_b es
ow n
_im mer
a ce
b st
ou nt
or d
it ion
re d
_c all
f r
_K ind
_D ing
_th ose
_we it
_I hnen
_f irst
_t un
st ell
lich en
itt le
_we il
_E n
o ,
_l ittle
_l o
ers on
_k on
_ne w
ung s
c ent
re i
? "
_l ot
_w oll
_wur de
au b
_f ü
r it
_O r
_im p
an ge
_r es
y s
re e
_of f
_ ra
_N e
om e
w ay
v el
_so ll
ch e
_p h
_mein e
_we 're
_sp e
ie d
_uns ere
_wer d
oo d
_b is
ch te
_it .
_t alk
_W as
_dies es
_year s
g end
i ß
_Th at
kt ion
a ut
g er
_sh e
g r
_a c
_ist .
_mo st
le ich
_k le
ut ion
_M an
_re al
_p o
a v
_d am
_tim e
_" W
g an
at s
_on ly
ra m
_r ight
at ed
is h
_kein e
_p ass
t en.
a f
at h
er ent
_Le ute
ge b
er g
_h is
om men
os s
_a d
_m üss
_w iss
ra g
o k
icht ig
_h um
_d r
_d ay
_h in
_z we
_1 9
_S e
_d is
_dies em
_g ut
ung ,
a ff
an c
_e ven
_G es
_diff erent
_ver s
_st ar
_vie le
_z w
_th r
_s ol
_z e
b ar
_g anz
_t ake
_2 0
m e
_con t
_l ie
o ff
_V or
_i de
_b in
sch aft
_dies en
w n
g l
_f l
_go od
_s u
_be f
_d own
ot her
ig keit
_you 're
ic e
ah l
u al
_h el
_Th ere
_ar ound
_ein es
_Als o
_and ere
ig er
i an
. .
_in d
_n at
_thr ough
r y
_A us
g et
_Wh at
_ 5
_ge w
at en
te ll
v ing
_p ut
ur n
i a
_man y
p f
us am
ic t
_zwe i
_se hen
_said ,
od y
_wie der
x t
_do es
h en,
_be k
_ver b
_p re
te l
lle icht
u en
_sh ow
ed ,
ib le
o ol
or y
ah re
g es
on t
ation s
_e m
ung .
o c
_1 0
_there 's
_Ar t
_So ,
_t ell
_A uf
ed .
_com m
v ol
_W ie
_sel bst
ü n
_pro blem
ä hl
ar n
_Die s
ol d
u ß
an ,
_dam it
_and eren
_in c
_u se
is m
_tr y
_be ing
_den k
_hab en,
ct ion
_Pro blem
y p
_k omm
_ 4
_b ring
ation ,
ach t
_d u
_j etzt
r i
_in s
d ay
_w el
_f act
am il
_st ud
e p
on s
_hum an
ed e
_g em
_s m
j ect
_happ en
_they 're
_b est
el y
_D er
end en
_J ahre
e k
_w en
_l ang
_know ,
us s
_I nd
_f un
ich te
n is
_g reat
ation .
_com e
_P l
_m ay
_" I
eh en
_b ig
f ul
_b as
_s ame
_ver sch
_müss en
_n ie
_Now ,
et .
_M it
ell ,
_ge b
i re
_c ount
_zur ück
ö ß
ä l
_I f
_ end
ic ally
_den n
n er
ass en
_g esch
_Jahr en
p iel
in t
ä re
_st art
f ter
_U m
_sag te
_s ystem
i ous
a il
ent s
_bu ild
_as k
_h al
_per cent
_s im
at t
_we ll
_s ur
_hat te
usam men
s en
c ess
_c ar
ist en
_de c
_kle in
et ,
_ex per
g t
_g u
e kt
z en
_her aus
_it ,
ow er
_T ag
_a pp
_ver st
r en
_sch on
_g er
_b it
al s
_all es
_le tz
äch lich
est ion
it ät
_sind ,
o ck
ar y
_pro du
a de
z ent
_p a
_call ed
_F l
_war en
_th ree
_g ra
_da v
_p ol
_b en
_ha nd
_i r
iver s
_do ing
sel f
_B l
as e
_le t
_Ding e
ier en.
_ag ain
_vie lleicht
_wür de
u ll
_ch ild
or k
_i hn
er m
g el
oug ht
_re l
_w om
te il
_A mer
er v
_hab en.
t ing
_I' ve
_te chnolog
a z
_qu estion
_ein z
_I de
_re m
_H er
_o wn
_l ong
_le arn
_tr ans
_Ar beit
_Te il
_sind .
o .
_vers uch
_that ,
f ahr
_ze ig
t y
_ma de
k l
ent lich
t ra
_e le
el d
und en
_ma k
an ce
eh men
r at
_imp ort
_ar beit
_G eh
form ation
r ä
_you .
_A b
ats ächlich
_und erst
_bra uch
on om
_so c
_L and
_sh ould
s am
_war ,
_be h
_M e
_des ign
_dav on
f or
om ent
_se c
_N un
ier en,
ly ,
_gen au
i ze
_F or
_mach en
_Be is
_G en
a um
_Gr und
_p erson
_A fr
_N ach
_c reat
_ent w
_A ll
_g leich
ensch aft
om p
v or
_to day
_he ute
_F re
_fe el
_That 's
_t urn
ation al
ub l
v es
_I m
hal b
_H ier
_a fter
or n
sch e
_c our
_B ild
ä d
_pl ay
l er
r ank
_W iss
or s
i x
_re c
_be lie
_i hnen
_j em
p ro
_sch w
, 000
h en.
_st r
ity .
c es
ein e
_li fe
_h im
ö glich
ul ar
änd er
_mus s
v ed
ern ,
_bra in
_könn en.
_star ted
z ie
al t
_ex am
we g
hn e
_Th ank
_did n't
_wh y
_2 00
_geh t
_l ast
_Die se
_k l
_is ,
_kon n
_Un ter
_ste ll
_mein er
_werd en.
id en
ir n
at z
_d rei
_I hr
_underst and
_Z u
b r
ien ce
_it s
ab e
v ent
_pa ar
' ll
eh m
_w ent
am m
th ing
ier t.
_dar über
_bet ter
_m ight
_ne ver
_ein ige
_ab le
o ver
- S
re ich
_st ill
_so nd
_nicht ,
m lich
ity ,
_bef ore
ion s
_we iß
_w ichtig
_g ive
_n un
ell en
h m
_f in
o v
_e ff
_G l
_we 've
_sp re
_k e
_li f
_con s
_ch ange
_m ed
at ur
_b ess
g ram
g ar
_mö chte
oll e
it al
at ing
ra ch
z ähl
_Ge b
_an other
_t ak
it s
a ve
_ver w
a w
_b r
_K l
_W ell,
_gl aub
_Beis piel
o de
_hel p
_sond ern
_im ag
ähr end
b ody
_and er
en k
ion ,
ern .
_weit er
_t atsächlich
_can 't
in es
_Re g
_se hen,
um ber
we ise
_Kind er
_b esch
_er st
ür lich
h ,
sch ein
og ra
_pl an
_ 6
_ex p
_s l
_m illion
_w äre
_z usammen
vol ution
_s ort
_z ie
_ir gend
_ Ü
_g ab
_sein e
_b o
ut er
_s uch
i o
f ol
_w ahr
at her
_e igen
_Ne w
_f ound
_b ede
uf f
_S ach
_sag en
_I hre
_to get
_wer de
_unser er
ze ug
_toget her
_k id
_d ort
_g el
ion .
l es
ar ch
_m on
_e c
_In tern
_comm un
y m
ter ,
_sch ool
f en
_wiss en
k ay
_M us
_könn en,
vel op
_spe c
ier t,
at ient
_k am
ä h
ie s,
_P h
w ard
_W ass
un k
c ted
_p ar
_D es
ie den
al th
f ür
_d at
_that .
_fe w
_A ut
än g
E D
_m al
_v om
_gr öß
ö s
_w an
ier te
_B r
en de
_ver l
ü nd
l and
_wor d
ot h
ge f
_com ple
_K on
_h ät
_ne xt
lie ß
_ge f
_gl ob
_c ame
_jem and
_da zu
b l
_M al
_n umber
_M illion
_say ,
we en
_ide a
_this .
an ze
_W el
_m in
_ne ue
b en.
_e ach
i ff
_entw ick
_import ant
er k
ie s.
d e,
ar s
ar beit
it z
iv en
_E nt
_sein .
_ge gen
_M ed
_Te chnolog
_zw ischen
_h igh
r icht
_ein mal
ö ff
_so gar
_de velop
on ,
if ic
at ive
em ber
_ch ang
_sein ,
_H and
s e,
ü tz
il m
c e.
it ed
at ch
_Gesch ichte
b s
_W hen
_bet ween
au en
_t re
ar m
_for m
_den en
c e,
_Ch in
_p ower
_or gan
_an s
_Be c
_Geh irn
_o ld
_exam ple
_1 5
_3 0
te t
_ger ade
_in st
_o p
_S eit
_1 00
_inter ess
em ent
and er
_H ow
_" D
_f our
_k om
us st
_sm all
_Amer ic
_m et
_b ere
_r un
fü hr
_letz ten
ess en
_th ought
iel en
_5 0
_sch n
_T ED
_D e
_us ed
_fun ktion
_ 8
op e
u le
_m e,
se .
_o hne
_look ing
i um
_n äch
_b i
m it
am p
_li ve
_werd en,
_Ü ber
_ex pl
hal ten
_c re
_hat ,
_part ic
_dis c
_st or
b en,
_e l
es en
or ,
n en
_ 9
_E x
as ch
_st and
_gro w
et en
ic s
ot t
_lo ve
_Nun ,
_St ud
_ 7
ge w
_Leben s
_c ent
_inter est
_Sie ,
_me an
z eit
_mö glich
_da für
ie ,
ut en
_Sch w
_Bec ause
_en g
l ag
_m ag
_P r
_ihr en
_does n't
_er zähl
_f amil
_versch ieden
_v is
_wan ted
und er
_sec ond
en ge
i end
ir d
_them .
ater ial
le d
_I s
_" T
_li k
sch ied
g en,
d em
_w ährend
_p oss
_ [
_l ar
_try ing
_po int
enn en
_who le
way s
f in
_Pro zent
_kann .
_in v
_gen er
an gen
er r
_c are
_T r
_Un ivers
_f re
_E ine
it u
_c ell
g est
_er sten
ik an
_g ing
_this ,
ure .
i ,
_S te
_d ach
u er
re ib
ing s
_s k
ell e
_di re
_E nd
_re ad
_A t
y n
_s ub
t s
ie le
u ge
_re g
_F r
ru ck
_fü hr
_e ing
_war um
at ter
ru pp
_ph ys
et er
_re as
.. .
it ies
_res p
in s
em ein
_ Q
_a way
at es
_m ind
_M y
in ,
ab ly
_world .
_pl ac
_ich ,
il ity
_l ern
_pol it
_er w
_ec onom
ure ,
_sag en,
e w
_w r
_jed er
_b re
_C omp
_Fra u
_belie ve
h ere
ro ss
ier ung
_nicht .
_d re
_m ensch
_b ook
_b us
_n am
_an im
_c ap
_W ar
_al ways
_war .
_pro b
_nat ürlich
_s ing
al en
t ig
_n orm
_A s
fü hl
_mein em
_Million en
an .
du c
_könn te
iz ed
or en
_We g
_p ict
_etw a
g en.
ie f
_fact ,
ie t
_fr iend
ur al
_an ,
u p
am er
ar th
iv id
oll ar
_ar t
h ip
_P erson
ce pt
ist s
_he alth
_M on
ro w
ver s
_wird .
o y
_h ard
_D ank
et t
_tim e,
_beg inn
uß er
_R aum
_mein en
_ac c
_su pp
der n
_c ou
_g anze
_G eld
_Afr ic
_er ste
s y
f all
_ ♪
_hat ten
öglich keit
_hat .
t re
t schaft
ill i
_ihr er
_ Ä
_to ok
_Fra ge
' d
_A m
_f as
a ir
ä ll
. 000
_me isten
_mo d
_groß e
_" S
a pp
_Sch l
_th ough
or .
_S ystem
_ab s
_mach en.
_sagte :
ro p
_c or
_what 's
_nicht s
_zie mlich
_Fra uen
_d abe
_l and
a ß
_U S
_f rag
isch er
_bede ute
_er k
_en erg
_f ive
w ir
u es
p ar
_us ing
p e
_schn ell
igh t,
en ?
_e ig
ung en,
_l ess
a kt
_a ut
_work ing
_comp an
sche id
schein lich
au g
_pro ject
_you ,
_dar auf
pr ess
_wur den
ver n
k un
_st ory
_M ar
ide o
_d ra
al ,
_cre ate
sch en
ör per
_En erg
_p ubl
um ent
st er
ou p
al d
_sch aff
_f ast
_tim e.
_m ark
_he iß
_at t
_verst eh
_h ör
_as s
_bess er
u ck
i a,
_There 's
an ke
u gen
_und er
id er
ond er
_m oment
_m one
st r
_f ut
ust r
_do ll
_Ver b
" .
_v ier
- M
_sch l
_w alk
_n utz
_bec ome
g esch
_cour se,
_there .
_f ood
_M ein
_pl ace
r ic
ur z
_M in
le ar
_M ann
kt ur
_count r
_Fre und
_Wass er
on .
_Intern et
r ib
_Th ese
_en ough
_s ah
sch af
lich er
im ent
_ben utz
_l ight
n ov
_F amil
_In ter
_wiss en,
_komm t
_ Ö
un kt
_don e
_do ch
_go vern
_beg ann
in ess
el s
_te ach
_hal f
ro ß
v ir
_D ann
_may be
_sie ht
_c oll
_Y ork
o ot
_kann ,
sy ch
_W or
ch er
ogra ph
_qu ite
igh t.
_G er
_h ist
c i
_Pl an
_F all
au pt
_an .
_he ad
_soc ial
_En tw
a x
st änd
_wird ,
_n ah
_them ,
ru ct
o hn
_c r
_get ting
_D enn
_st op
_I' d
z ahl
_uns eren
en se
_S he
_com es
_wen ig
i ere
_V ers
_wom en
ie .
_" H
_le ben
_here ,
_t yp
te m
_to o
_ '
al .
_m e.
_klein en
j ekt
_p op
_M öglichkeit
_i hm
_D ollar
ert ain
st ,
_K rank
ut ter
i en,
_D aten
_O ne
ich er
_P ol
_s ign
_c o
_gl au
_in t
_pro f
we is
t es
_w ater
_St ad
_f ar
_me ans
_In formation
icht en
_wen iger
_so z
_I' ll
_bek omm
_op en
o le
_wel che
_sp ä
en. "
_mon th
_re d
_so ,
_ro om
_H ere
_C hr
n g
_E ur
de ck
_Sp iel
_c ur
_gr oup
_dabe i
_st uff
_here .
_g re
_K re
iv es
_D a
_prob ably
id ent
_mo v
ik a
gl aub
ick l
_eig entlich
_ ...
fol g
d ition
re it
on ment
_se it
op f
_Mensch en,
_End e
e ver
il t
ä s
st and
ir l
_d ist
_world ,
_we ek
_se em
_le g
_O kay
_geh en
um ,
ism us
it ä
_to ld
_technolog y
w are
_St ra
_Wiss enschaft
_talk ing
_with out
t ty
ä us
_ver änd
_j ob
_mach t
i pp
n ah
_O b
_cont ro
vir onment
ch en,
_be aut
_das ,
ch ten
it er
_o pp
ä hn
_s et
_best imm
_W er
_h und
_mak ing
d ent
_es ,
ation en
_1 8
_4 0
ü hr
ort un
qu en
ä uf
in .
in e,
_b ad
_p ie
_sch le
_bes te
_b er
_S h
_O n
_M än
_e ar
_H aus
ist er
es ent
_glob al
o gen
ur s
_" A
o hl
_ex ist
_E l
_e as
_B ü
_now ,
a ben
ed er
am en
_Des ign
_all ow
g le
g e,
_kle ine
_G ed
_G roß
_to p
_reas on
ir m
_fü hl
s etz
_p os
en e
ly .
ä m
_f all
_build ing
ig .
_We 're
k omm
_b illion
_" O
_en vironment
_pre tty
f ind
am ent
_ „
" ,
_W och
_st at
g n
_v oll
_ch ar
_ganz en
a un
_f ol
_he ar
in e.
_h och
ese arch
r on
c ke
_Zu kun
_dat a
_govern ment
c l
h t,
_g ar
ur es
_jed en
_B uch
at er,
is k
_L et
_ges ag
_ke ep
N A
re ad
_groß en
- A
_Ge w
_every thing
_ph ot
_s ound
_k ommen
m ost
_G rupp
ä ft
_St r
n f
or th
_re t
_f ig
it ive
_M et
ra ft
_" N
et her
_you 've
_1 2
_year s,
_s er
ur ing
ab or
w end
_a ußer
ig t
_sim ple
_M enge
_sa w
c ed
ter .
_G emein
_E le
_mak es
_f and
_wür den
_c ol
ous and
p ort
_un glaub
im es
_O K
d r
_sch ön
f er
_e duc
gram m
re t
- P
_abs ol
at or
_En gl
_child ren
u de
_g est
_p ra
_m or
- s
f ang
_c ult
_ele ct
_v al
_j e
_fü nf
_com ing
_rem ember
_h our
den k
_woll en
_ac ross
_partic ular
_m il
A :
ier ten
äh igkeit
ät z
_mach en,
_e y
el ,
kl är
_w onder
ag e,
ch en.
_there ,
_eff ect
_K örper
_sc ient
_s ix
_interest ing
w usst
_th ousand
_be im
et s
und heit
n ect
er s,
_you ng
w here
in ce
_g ern
_D o
_r est
st off
ag en
_kein en
_kid s
_viel en
st .
ere in
_V ielen
_a ir
_D ar
_think ing
_L icht
_aus .
_2 5
_An tw
ö l
_Un tern
_tun ,
h ol
_ha ving
_ag o,
_Ide e
_v ir
_Entw ickl
_in formation
_S el
_M illi
_N ot
_ öff
_p ers
_jed es
_soll ten
_b ro
_K ar
ion al
_M oment
_un t
mer k
_G ra
_ind em
_te il
_comple te
c y
lich ,
_r esearch
_ind ivid
b t
_f al
_n enn
ig ,
_geh ör
_sing le
age .
_Energ ie
lich .
_le ft
_eigen en
ou th
_al most
_er inn
_Q u
h an
_er sch
_N atur
ate g
_L ie
_gem acht
em at
il der
_le vel
iv ing
_people ,
_lang u
_glaub e,
t :
_E arth
_dar an
_sh are
_denk e,
_konn te
_zw eit
mit tel
_d ig
_ask ed
_m atter
_woll te
i ft
i .
i a.
- K
ch es
ze ich
auf en
_se en
_li ving
_mo ve
gef ähr
_e qu
_soll te
äl t
_lif e.
_e v
sch l
_poss ible
_b le
ig es
_U .
ic .
_F orm
um p
_f ac
_w atch
_pro cess
_s ens
_B er
_am az
_ro b
z uf
a it
im e
_Als o,
_" M
ru ktur
p or
_h om
el .
_T ra
_let 's
_f und
_lo c
_irgend w
_g ute
ap s
_Pro du
_wahr scheinlich
in ter
_W ahr
_Or gan
_kom ple
- B
_su c
_bi olog
_u s.
id d
ul ation
_ex tre
_Dank .
_b oth
_n et
_wh ile
_bas ically
_Milli ar
as ,
_c ertain
_They 're
_happen ed
_Un s
_Ges ell
_ex c
_sel f
_US A
ein ,
_sein er
_sich er
l ine
ent en
_Z e
wer k
g ed
_st re
_all er
_"I ch
eh n
ff en
_War um
_not hing
_inc red
zie h
_inv est
uch t
_pro te
rie g
i or
_tun .
ath emat
_Technolog ie
_Ges undheit
as h
_or der
_Mus ik
n ess
in z
_n ä
_lik e,
m an
k ommen
f ern
_ne uen
y ing
_s ense
_h ope
ung en.
es s,
_of t
_way ,
ter s
ally ,
_unser em
_Zukun ft
f te
_ver k
eln ,
ün st
_ans wer
_ch all
kt iv
_energ y
ch mal
_S on
sel ves
l os
_p atient
_D NA
_K ont
_R ob
_go es
_ex act
_gen ug
_disc over
g leich
ß en
_g irl
_Sel bst
_publ ic
d en.
_t reat
_t erm
_al read
_people .
_wr ong
a ur
j ek
_S inn
om en
_cont in
_se hen.
ass en.
_my self
ch an
_k ill
_J etzt
_D anke
_bes ond
_denk en
ie ld
_can c
if ul
lich keit
isch es
hal t
_P atient
ste ad
ch s
le gen
_Seit e
_comp uter
w ork
_E ver
id ed
_sp iel
_Un ited
_look ed
_etwas ,
_in sp
og n
h and
er ung
_m ar
_P ar
_näch sten
_ch e
h ör
n et
ll en
_c ost
_p ain
_tim es
_p at
_fr ü
_diff eren
for der
_könn ten
d en,
_un gefähr
_d ise
_n ehmen
_pass iert
_s it
_wir ,
an e
_T od
_produ ct
m ut
_w rit
_St a
_B ed
_ex tra
ou se
_K un
end er
_r ichtig
_Comp uter
_in tern
_wh ether
_an t
_F ot
_do .
_Stad t
ge ben
_gu y
_mone y
_to t
_is s
_cou ple
_we g
ic ro
_B ere
_any thing
_Chin a
z us
_contro l
_ ü
S .
_B es
_f ra
_spe ak
m and
le ,
_he ard
is ion
_he 's
_de v
_jed e
a der
_u r
au er
_Er de
w ach
f le
i ke
_F e
_me an,
_de fin
_ra d
b o
_F ilm
_count ry
_example ,
_b ed
ar ,
_D u
_M utter
_with in
_be vor
re is
_con nect
_some one
_A ugen
_E m
_Er fahr
_gem ein
_c as
_F ähigkeit
_hund red
_Wh y
_inc re
_For sch
_F ür
d .
_m ot
_h ome
_St at
_ —
_a ff
ro ll
_fig ure
_se x
_m ust
_M äd
ten s
_ent ire
_k urz
_den ke
_beaut iful
h at
ehm en,
h t.
_N icht
_brauch en
_t est
_c ond
ult ur
_m ass
as .
_h off
_sag te,
f ect
es s.
_h ö
us h
_B et
_u s,
_bus iness
r itt
a uch
_er l
_all en
_Sch ule
d ,
_m ess
ic ,
_her um
s pr
er s.
il y
_sp ace
_look s
_spä ter
i ol
_tra in
_i dent
_l ange
_ver d
ges tell
_s ure
_sein en
ig en,
_in tell
oll ow
_Le hr
_An g
_Geb ä
o te
_t err
it ution
_Sch ul
i red
- T
_exper ien
z ust
en g
os ed
_ge ben
eln .
e ah
ein ander
_gib t,
_wur de,
_p sych
_M eine
_year s.
_wurde .
s atz
_p ay
_alread y
_sp end
_beh av
_m en
_o pt
at ,
_über all
_f ull
ge .
_Z ahl
_bis schen
_Gl ück
_unt il
l t
s o
- F
_in ner
_6 0
t t
v oll
_on ce
_ins ide
_thing s.
_norm al
ö hn
is ,
om et
_l ink
h in
a hn
_s w
_m ent
sch n
_schw ier
wo hl
_ änd
s uch
_m em
_er reich
_ch o
ant w
_19 9
_individ ual
_d ich
ab il
_Ding e,
w ind
im ens
iv il
_We ise
_kn ew
idd le
c c
_er h
_Ge gen
_m aterial
_" Y
_vor stell
_much .
_Ex per
_s ide
_C A:
und e
i en.
at iv
_m iss
_V ie
_in nov
_hat te,
_ob ject
_rob ot
_also ,
_vie w
v ious
es ted
_D em
_con st
pl ic
imm t
_glau be
_on .
_again ,
- c
_d est
um e
_ch em
_dach te
_K opf
_Jahr h
b ild
_f ollow
_sp ac
_app ro
_verw end
- d
_b ody
_was n't
_qu ick
_ihre m
_D enk
icht ige
_Dies es
_el se
_P e
im ate
_vor ,
_l assen
ent ial
_happ ens
or g
_of ten
_groß art
_U r
_re cht
im mer
au en,
_hin ter
_Ent scheid
on 't
un ter
lich es
_Problem e
_doll ars
_e uch
_p ot
_sch ein
_ne ur
_8 0
_Milliar den
_T o
_hät te
e f
_D i
rie b
_em ot
_k enn
_" E
_think ,
anc e,
_interess an
_hist or
v es.
_pro v
- G
_d ir
es t,
_Pro z
_S tell
ach t.
_tra dition
_Her z
ü s
en z
_L ös
_st ruct
ck en
_Gen er
_l aw
_it self
ad en
_de p
ap e
ode ll
h äng
o sten
_d et
_is n't
_ar ch
_fut ure
- m
os ph
_fr ont
_bec ame
r .
en h
_up ,
_Wiss en
_B eh
able .
_kind s
_dec ided
_tak ing
_N etz
g ang
_B o
_ne u
_con f
_Ever y
on e.
as se
_c ra
_Sach e
_"T he
_out s
_ad v
_complete ly
_t ro
_w under
le ben
ion en
_ab ou
_pro gram
_up .
_nam ens
b ra
_G oo
_an ge
_F ol
und ert
ac ter
_way .
_exact ly
_Ge fühl
_now .
_well ,
_aus ,
öl k
u c
f en,
in al
_B ilder
_G od
_weiß ,
_s erv
id e,
iz ation
_e ben
oc us
_Antw ort
_c lear
_al ong
_find en
_comp ut
gr und
_cent ur
uf t
z ug
_to ol
ir c
_K n
_es s
_Sp e
_pr iv
_bu ilt
_day ,
_m other
_o ce
_Th em
_bek ommen
wir k
_g am
le .
_c ool
_v ar
and el
_hab e,
w elt
_s ow
ist ,
_O der
_opp ortun
_beg in
l ess
ü t
- D
_s ince
ic e.
ft ware
_res ult
_verschieden e
_c olle
_out ,
_mir ,
_learn ed
_Information en
u e.
r um
_te chn
_pict ure
_re pr
eh l
_sc ience
fl äch
at e,
_S c
_and ers
_C an
rie ben
f ort
_sein em
_ar m
_comple x
_f est
_Z usammen
_get s
gan gen
_bere its
_extre m
_Kun st
f ra
v ie
_s ym
_er klär
ass en,
är k
m et
ive .
ze pt
_Ar ten
geb nis
_pie ce
_w ind
_v o
_zeig en,
ab y
stell ung
_Krank heit
im p
_amaz ing
o f
_f ocus
_Ar ch
_ges ehen
_wo hl
h y
_imag ine
_D urch
_denk en,
_min ut
_l os
_sch ließ
_b od
_gl ück
_in form
le b
ib ly
_We il
_ent deck
_diff ic
_Fl ug
_again st
_famil y
_ ähn
_he art
_d ah
_" B
b ed
al ity
ann t
_r ies
_r ather
_cl ass
_exper ience
_rel ations
ic es
_j a
_turn s
i olog
b are
se hen
_some body
_eng ine
_anim al
_In st
_Univers um
_p red
_l iter
_Goo gle
u ld
i qu
m öglich
r al
re if
_v ideo
_me as
_de ep
ive ,
_p ap
us ,
_me et
_besond ers
_El tern
- f
_a v
_un s,
_mod el
_countr ies
_Vie lleicht
el y,
chn ik
_jed em
_Or t
_bec om
_ad d
_exper iment
_Wel t,
itu ation
_versteh en,
_un iver
ke hr
_se e,
s. "
_way s
s k
_h uge
_" G
_Americ an
_lar ge
_every body
_mö ch
_lif e,
_Wel t.
d ruck
m m
a ktion
_o per
_Be weg
aff en
iz in
itt ing
fl anz
- E
_in stead
_r isk
_Wir tschaft
_f ilm
_an al
_sol ution
b in
as k
_b ott
ic e,
_se chs
_le ad
u z
o h
5 0
_L in
_im m
_dr ug
l ing
_g ave
t on
_W ort
_Pro jekt
_d el
_I r
ist ic
os p
_Verb ind
_er f
_thing .
_th ird
_h old
_S ü
_te am
_cour se
s h
_c irc
_ges am
_verschieden en
_Let 's
on st
_e g
_you 'll
icht ,
_Be i
_act iv
_stud y
_nat ural
_Eur op
_a ud
_ein igen
_K or
_mark et
_thousand s
_gern e
_e vent
_W es
_Z we
_lot s
f t,
_D och
_re cent
_beh ind
_1 6
_out .
ap t
_stell en
_f ing
_S ome
_on e.
_" L
_Aut o
b es
s c
st ütz
_in vol
_K ultur
_H il
_1 1
_Ver änder
icher heit
_relations hip
_f ish
and ,
_p ick
_ar g
är en
mal s
_right ?
_here 's
fl uss
_P unkt
_creat ed
r ück
if e
_mich ,
_could n't
_arbeit en
- y
at ely
_m icro
_be ein
_f ant
_K omm
_hat te.
_Sp ra
_Ide en
_entwick el
n ung
_C l
_St äd
_bere it
_Rob o
_woll en,
_rel ig
_nie mand
en 't
it ik
_f ield
_F ar
_er n
ag n
_mus ic
_problem s
_U. S.
_net work
ou n
or gen
ar ten
is e,
_c ity
_K om
_Nach richt
p ect
- b
_c ut
_R ück
we gen
_de al
ob ach
_Untern ehmen
, "
re ck
_c ann
ung e
_man chmal
_inter act
ie ty
id e.
_am ount
f en.
ensch af
_Er gebnis
_Be zieh
_coll ect
_M asch
_N at
um mer
_Ch ar
_Bere ich
st ra
_be iden
ach en
rei ben
vie w
at e.
_H I
um en
op p
_de ath
_ %
i ot
ct or
_work .
_imp ro
_Her aus
_ear ly
ra cht
_L änd
_Z iel
_unter schied
_Gesch ichten
_erk enn
_Okay ,
_Danke .
b ere
_o il
is .
_A d
_bl ack
_ander es
c ul
as st
_heraus ,
l oss
_B ro
_was ,
ant s
_plan et
_th en,
_W erk
_un ivers
_1 4
_rec ord
h aps
_ste p
_20 1
_sur f
_li ves
ubl ik
_m ult
ra d
_Z w
_d ein
_all ,
_le ader
_lie gt
_Grupp e
_s end
_Män ner
M :
_be l
_today ,
_tak en
i ally
! "
on e,
re ch
_work ed
_HI V
_we gen
_K le
ten d
_gen et
_econom ic
th er
schn itt
f äll
ach t,
_Le uten
u h
um m
_über h
_j a,
_le ast
ust rie
_hab e.
än ger
_Fra gen
antw ort
u e,
_f ly
_n on
_j our
ok rat
_inc l
i ans
un ch
eh en,
ell en,
_mus ste
_sim p
_heiß t
_do ,
ak ter
are d
_say s,
_somet imes
_well .
_Gesell schaft
_e her
_c it
_l ow
_Reg ierung
- l
_t em
_St ück
al if
_st ark
re g
le g
_inner halb
G :
at er.
ar te
_sch wer
_Auf g
uß en
_person al
w and
al ax
_pat tern
er ing
_F ahr
_K rieg
_P art
tw eit
on es
ist e
_We 've
_Ver halten
_find en,
_ze igen
_sagen :
_commun ity
_t ut
_s ter
at .
_Th en
_su per
_stud ents
_soc iet
_cann ot
a i
it ect
_on e,
_H ö
_auf ,
_ide as
_dig ital
_suc cess
_nä mlich
_a ge
_l im
_war en,
ik ro
_des c
_sag t
_Leute ,
_mensch lichen
_Here 's
_Heraus forder
v ölk
_n ame
_cl ose
_day s
_s etz
_your self
_turn ed
_bre ak
_Mäd chen
c om
_M aterial
_G leich
_on ,
_st ra
_bes ten
_Dies er
ehm en.
_dre am
_s ug
_sie ,
_all em
iss en
_ent fern
ment s
_9 0
_Plan eten
_mor al
_s at
_M il
_Zeit ,
_today .
_expl ain
_d uring
_e volution
_re du
_V ideo
isch .
_ble ib
_le ave
_einz ige
_irgendw ie
- R
_be weg
t. "
_hier ,
aug h
_soz ial
_h o
_be obach
at en,
al ten
_se ven
_absol ute
_R icht
_J ohn
_fund ament
s icht
_in de
au en.
_H ar
_st att
av or
_gra nd
_zeig t
_gleich en
_commun ic
-y ear
er weise
_S k
_M acht
_E ig
pt ion
_prof ess
_m iddle
_S u
_B au
_O ber
ord in
_wel tweit
_exp ect
_wonder ful
o ve
in en
_t ief
as ter
_se i
_J ust
anc e.
_Min uten
_g iven
_f ace
_c al
_al t
_Me er
_power ful
_dise as
_an sch
ind en
_Gr öß
_z er
end .
_Z um
_per form
_würde .
_Famil ie
_Ged ank
_Jahrh undert
_fant ast
k te
j or
_i ll
_auf .
_Wor ld
äm pf
l ung
_o cc
ou d
le as
_1 7
_con c
_tak es
_diffic ult
m en,
_is .
_ne ar
_aus s
_cl os
ö ll
_s qu
or r
_p ost
us .
ra b
id es
fahr en
_bedeute t,
om at
ig ten
_verst ehen
_Organ is
e te
f t.
le v
_V ater
_V erein
_Tr ans
_Gebä ude
ä ss
_s un
es se
_W ahl
_thing s,
our c
_year ,
_sc ale
zent r
_re ach
_An fang
_wür de,
_pra ct
g ing
f ull
_f ather
_W ell
ag es
ang er
_Stell en
w är
h ood
_R es
_bedeute t
_insp ir
f g
_w all
_G ott
_St unden
_see ing
_comm on
_konn ten
_K ap
_J ap
_C ar
_tr ied
_Gesch ich
b ook
_P rä
_st ay
_o ben
_f ore
_c ase
_Z ug
_mach te
_per fect
_month s
_P ublik
_li sten
_mo le
_ma p
_wom an
_plac es
_spre chen
_z usam
il en
ge hen
_what ever
_1 3
_19 8
_cell s
l auf
ent ,
_happen ing
_versuch en
_spec ial
_Patient en
_f u
_T ier
_T iere
_pr esent
o ber
- old
le f
_v iol
_mein es
our ce
_ste ht
_str ong
fg han
_w ait
_th ank
_h ol
_it ?
able ,
ri ff
_stor ies
n ing
o x
k ü
_j o
_J ob
_mo ving
_Unter schied
_Pe ople
z ub
_o kay
_inter ested
_say ing
_beg an
gr iff
_überh aupt
_R est
_mensch liche
_arch itect
_f ree
_k ennen
_f lie
_S outh
_F ort
_every one
_sur v
_glaub en,
s ?
is en
_T yp
eh en.
_spec ies
_v öll
_F isch
_ob wohl
ish ed
_Mit tel
_rec ogn
an t,
_c le
hr en
_ma jor
_An t
_dar k
_learn ing
_näch ste
w ert
i ale
_en c
b all
ö tz
ö tig
an t.
ou ch
ann te
_Te chnik
_Kre bs
p unkt
on n
_or ig
_though t,
_sag ten
fü g
_eigen e
_loc al
_simp ly
_w ach
_we 'll
_L uft
ust er
_en orm
_cond ition
a ul
ä ß
an ach
_P ark
_sp ent
_St imm
_St ruktur
heit ,
_Afr ika
_term s
p id
s ein
am ,
_day .
_zw ar
_Afric a
b ring
_S icherheit
icht .
_produ z
for sch
_Kl im
_Vers uch
f eren
_c aus
ro om
_kl ar
ward s
_funktion iert
_dire kt
h af
_be merk
ur t
_L assen
_Re i
_gib t.
_incre as
_l ab
_M ay
_der en
_ne g
_fe ed
_sc re
_gu ys
_grow th
_ver y,
wo hn
_gr und
_weit ere
_p ast
_ac cess
b ol
- W
_a ver
op h
_V ir
rie d
_Gr ünd
_Se k
ede ut
_univer se
_Spra che
es ter
_m athemat
_H ause
_vor her
_ob vious
_erst aun
_resp ons
_fal sch
- t
is c
_me chan
_need ed
_po or
_sur pr
_friend s
_f elt
end ,
_gr ound
st um
_re qu
_P ap
und en.
_ag o
_Ind ien
m ö
_l äs
l in
b an
_appro ach
y l
_A pp
_D am
_r ight.
_incred ible
_M odell
_B ür
aus o
_ob s
_po in
l o
_g ed
_A fghan
_on es
_per haps
_sl ow
_Ö l
_a ch
is ing
_nach denk
bar en
_outs ide
c ious
v es,
le t
_l ost
_We b
_jed och
m en.
ü cke
le x
_l ine
_l ater,
_K ü
_work ,
_bu y
_7 0
_doll ar
l ang
b or
s m
_L ond
_real ized
_Woch en
_e ith
_I st
_H aupt
_2 1
_need s
_canc er
_völl ig
st att
_y et
_F ern
_sol che
_phot ograph
_pers ön
_w us
il ar
_V ort
pl es
_pr es
_verb ess
_gemein sam
B :
_m orn
le tz
_sh ort
_cons um
_Män n
- p
_Re al
_again .
ig ung
ra chte
_st ate
_" P
hal ten.
_Pol itik
h aft
ar z
_n ight
_N o
hal ten,
_pr in
gr ess
_letz te
_Ang st
_e mer
_M ark
_ver änder
isch ,
_dem oc
_ste hen
aug ht
b el
_e ight
is ik
_r ight,
_kon t
amer a
ent .
_er re
_" J
_C O
ab ility
_aus ge
_pr im
_Ne ur
_Um welt
_trans form
_vir t
_f ear
und en,
sp ro
_Grund e
_att ent
_hour s
c in
om in
_M ot
_an n
ver t
ür z
_sich ,
_chang ed
_Publik um
_d ad
ie g
_M o
_St and
ien en
_Tag es
ogra f
_word s
alif orn
- L
ö sen
_c rit
enn t
_her vor
_pr ess
_bl ood
_tro tz
_brauch t
_hist ory
_Ele kt
_"Y ou
h .
_gesag t,
an ten
_c over
_Pro gramm
_h y
_zu vor
_J ed
_war en.
_Er folg
_ke y
e um
ow ,
_on line
_R ed
_le b
os ition
_tr ue
_year .
_bo x
_exc it
o ß
_s am
_b orn
_be wusst
ur g
ra um
_an f
_N ational
mer ikan
_long er
bl ick
_compan y
_p ull
te x
_T ats
_ab ility
_O ze
u it
es t.
_for t
aus ende
_a w
_s itting
is on
_H off
_Ge f
_19 7
_gleich e
_Stra ß
_unglaub lich
_intern ational
k en
v est
_b ar
_ver g
_N ahr
_ma in
ne y
_Chr is
_t w
_be w
_B edeut
_P unk
_C ent
_5 00
_polit ical
_dra w
j ähr
ou s.
sch lag
ist .
inn en
sam keit
_eing e
_langu age
_P er
_they 've
_actually ,
_bas ed
schaf ten
_in ,
im in
_H änd
_mus st
_Um geb
_cons ider
r än
_S ym
_and ,
ic s,
_man ,
_mo dern
_In nov
_know n
_Pro jek
_Comp ut
pl iz
_"W hat
_phys ical
_Entwickl ung
_Robo ter
r es
_g ame
te t,
_k auf
icht igen
_es .
e. "
ik al
_anim als
i ber
_our selves
_He ute
erst ör
_Ihr en
_br ought
_fra gen
_bott om
h le
_f oot
_in te
_W o
_for ward
_hat ten,
_geh en,
_imp act
_gel ern
_entwick elt
_Arch ite
b re
_s ud
_S an
_Te am
_Kind ern
inz ip
_erl aub
b au
_f ail
_I hn
_l og
_J a,
_would n't
_Gesch äft
_real ize
_geb en,
_gehör t
r ent
n al
b on
_v ol
_B est
il os
_ro ck
fr ast
_dam als
_show s
_ander er
_in .
_D av
_dar an,
rie den
ment .
e x
_h ouse
is ed
_N orth
_bl ue
_supp ort
k ten
ing t
ag er
_V iele
_mein e,
äch st
_happ y
_unser es
_müss en,
_bring en
- I
te te
_F in
_sa ge
_say s
_nah m
_seem s
m in
ou ble
_f avor
th e
_You 're
_part s
_3 00
_müss en.
_gem acht.
_fun ction
_größ ten
_hät ten
it en
ar ing
id ,
_J e
ust ain
ss ystem
_pr om
_He 's
_wel ches
_lang sam
_Afghan ist
_s yn
at ure
ou s,
ion s,
ion s.
ge fühl
_nat ure
yn am
_Ä r
_mov ement
h or
ch sel
ol z
iz ing
ens icht
_zweit e
_Uns ere
h od
z w
_e d
ig en.
ot s
_know .
_new s
rit te
_med ic
_ X
t rag
_h ar
_h op
_g iving
_gen auso
ount ain
_kon nt
gend en
_question s
_Engl ish
_meas ure
a j
le ep
_er folg
ation s.
_ne igh
_O ur
_know led
_thing ,
_work s
_Tats ach
z in
_w ro
_M ag
_M ikro
ein .
ik er
_ag o.
as t,
_W ach
_re volution
_F irm
_sch reib
_de f
_Y eah
_Reg ier
_eas y
e e
p ut
is e.
_be ge
ind en,
_vis ual
_Mar kt
_behav ior
_Proz ess
_n ational
im men
_V iel
_are ,
_de g
_de ad
_Re volution
_Sach en
_inst itution
_chall enge
_desc rib
ötz lich
e im
_W est
_K r
_H a
_Jahr en,
iden ce
_wr ite
- C
_w on't
_B ra
_ar r
_off en
_gut .
_frag te
in ed
om b
_V ide
_pro p
stell en
geb en,
_pop ulation
_komple x
_b all
_T on
iv ed
_Er st
_2 4
_problem .
_spre ad
_größ te
schaf t,
z y
l am
inn er
_"W ell,
_Denk en
m osph
k ,
j en
_T age
_M ich
_tell ing
_gegen über
ci ally
_Sü d
us ch
_L age
_fl o
_geb aut
_differen ce
u ell
i od
_p ath
_F ühr
_N utz
_N ord
ers p
_Be völk
_stud ent
_Bl ut
_child r
_spre chen,
gew öhn
_dire ct
_Lehr er
ch ter
_B ar
_E ben
_will ,
_Med ik
_incl ud
_t in
at ely,
_c amp
ur en
_sie ben
ann ten
_An zahl
_unter such
ar en
ab l
_Wahr heit
_hundred s
_CO 2
y c
_a merikan
ot yp
_L änder
_pro per
_ent st
_really ,
ment ,
_start ing
_gre en
_Nat ürlich
-year -old
_f ert
is se
_W ith
_re ich
_un f
_tr ust
pro du
_together .
_OK ,
er ed
_e t
ig t,
ot en
um b
_des halb
pl oy
_count rie
_feel ing
_stell t
_wäre ,
_eng ag
u elle
_h osp
_S om
un ktion
_so .
_le d
_con vers
_woll en.
_em p
_beginn ing
_Ober fläch
ro gen
_B rit
_wor th
_ge ze
_who 's
_sehr ,
_per fe
_versuch en,
_darüber ,
_together ,
_nutz en
_self -
_erfolg reich
in os
or der
_c ivil
_W ind
_L ern
ay ,
_are a
_w id
_die ,
_F rei
au ben
_tr ut
_jem als
_compan ies
_schle cht
I D
_K önn
_r ul
_Er k
_Ar m
he ad
_elect ric
_Su per
w art
o id
_f a
_to ll
_M aß
_N acht
ation s,
_R ight
_weit er.
_fl u
_pol ic
_lern en
e le
or ie
el be
_M iss
_es t
op er
_geh en.
_wiss enschaft
_sim ilar
_develop ed
_educ ation
r asch
g em
_s n
it .
_f ight
te xt
_T w
_er zeug
_mo b
_dar aus
äch t
ungs k
pe cially
_oce an
_Them a
_l ater
_stor y.
zeich n
_ü br
_G ut
_auf ge
_im age
_sp ir
_dar in
ore ,
_ro ad
_fl ow
fall s
_att ack
_minut es
0 ,
c ing
- V
_se ll
_N amen
ne cted
_Ges icht
_kam en
_Des halb
_öff ent
_Hil fe
_g ives
_S ol
_K at
_ne ben
_1 ,
_geb en.
_psych olog
e cted
_B esch
_E is
if ied
_bl ock
_unter stütz
ri ft
_play ing
_par ents
r uf
r ess
_t ö
_f arm
_A lle
_v ill
_z ehn
ra uch
ob ody
_mus sten
_bl ind
_kon zentr
_19 6
l im
_d anach
_s ize
_T it
be i
_show ed
_klein es
-S t
_pred ict
_t end
ie ß
it ter
_p ack
_T atsächlich
_H äl
end es
_r ich
_wur den.
_Ihre m
_av ail
_ach ie
r ü
b and
_that ?
_R ad
_sol ve
_Pl atz
_nie mals
_Erfahr ung
_s uff
_i gn
_ist :
_F ace
_" C
_tra vel
_ben ef
_Famil ien
_prote ct
or t,
_down ,
_Bl ick
_glau ben
wusst sein
_Rei he
w ass
ich ter
_W ährend
_all es,
_" K
_J eder
_hat ten.
_woll ten
_gut en
ically ,
_understand ing
_dach te,
_Eur ope
_pos itive
_absolute ly
_s ustain
_h il
_S ehen
_c ard
_p ur
_W ert
_P reis
_se ver
_R isik
_are .
_sch auen
iv al
_get an
_nach dem
ru ction
_am ong
_tra ck
_creat ing
_Woch e
y r
_n ennen
_A ben
_ver m
_man ag
etz t,
_hel fen
_einz eln
_Arbeit s
_gef ähr
_sk ill
_Ö k
nah me
_Prä s
all e
_ab .
_ex press
_find en.
_"W as
_hin aus
_run ning
z ial
_t ouch
_s ong
on en
_p ow
_p oll
_l assen.
_D r.
_R el
_dar um
_she 's
itä t.
_möch te,
it ch
_e at
_f air
_S tern
_c op
te t.
_ha ven
_B as
_K ünst
_them selves
_dar um,
_lie be
_ind ustr
_ser ious
_mil it
_verk auf
_h ig
le it
_T est
_F uß
_K am
_" F
_Pro f
_What 's
_system s
_grow ing
_Jap an
w ood
ä glich
_i P
re l
or ge
or gan
ed i
_ne ues
_pl ant
_sa ve
_hier .
_soc iety
_Mon ate
_schließ lich
c ial
b e,
it ,
_g one
_ein ,
_Sch ritt
_Ar t,
heit .
full y
_sud den
_e th
_f ire
ind er
_K il
_sch ick
kt or
_St re
_comp ass
_system .
_Ihr er
_opt im
_Bo den
_wro te
y ond
_z .
ent ially
_un ten
_es pecially
_cl imate
_med ia
_million s
_soz iale
_Chr ist
_incred ibly
_Bür ger
_Vort rag
k n
ö pf
_ein .
_T em
_ver rück
_down .
_besch äft
_col or
c ond
_b auen
_W ör
_k ü
ell en.
_Z ent
_talk ed
_davon ,
_"D as
itä t,
_liter ally
_Face book
- w
_b ill
_b ab
_f ur
_S at
ic s.
_re act
_And ,
_sch rieb
_develop ing
_cur rent
_do g
os ystem
_Sch ü
_Wir klich
_any one
_Ph ys
g emein
_f em
ge gen
_K raft
pl an
_gesag t
_m om
or den
am a
_re fle
_ver h
ram m
_cons cious
_opportun ity
u k
_h on
st ein
_S icht
_l ay
_das ?
_li st
_geh t,
utz ut
_pass iert,
_chang es
_mean ing
_sub ject
_Gemein schaft
_be zahl
ib il
_Ch em
_off ensicht
nis se
_Dem okrat
_a k
_of ,
_könn te.
_Er d
_Mensch en.
_auch ,
_Ein ige
_sc ien
z t
S A
_W ohl
_all .
bar .
_spre chen.
_stop p
_fand en
_pap er
ü ll
_a p
_a cht
it i
_in fl
_re den
_pro ces
if y
_mach ine
_per iod
_fall s
_Entwickl ungs
es ten
_M athemat
_j en
_Amer ikan
_Verbind ung
n .
b ack
es h
_f ix
_S uch
_B ab
_re in
_sie .
_put ting
_Freund e
_val ue
_Fot o
_tot al
_haven 't
_B ä
ol f
ile ,
komm en.
_dep end
g or
_u lt
_I ra
_A ktiv
_T ür
_an c
se quen
_St ates
_über zeug
_absol ut
_fundament al
_Verein igten
_eith er
ü h
_s amm
le ase
iv ely
sp iel
_d ram
_s leep
_W ill
_st änd
ell ow
_sh ap
_world 's
rit ten
_imag in
_becom es
_aver age
b y
_f ahr
_be yond
_E volution
_con v
_klein er
_heraus zuf
_Pr inzip
_Gedank en
n ,
o on
_w usst
at en.
_das s,
_B y
_O f
_sp rach
_Me x
_Aut os
_tre ff
ustr al
_mil es
_mem or
_inte gr
x y
_b ird
it ies.
eh mer
gen de
_med ical
u ellen
it ze
_n uc
_ein s
_all ein
ad em
_Ges etz
_Med ien
_Americ a
_benutz en
_pos ition
en ce
is hing
ck t
_Jahr z
_Ind ia
_hör en
_week s
gor ith
_ver öff
_se arch
ze uge
_sol ar
_dazu ,
_Exper iment
_sever al
f ord
_d ro
_b reat
_D or
_F irst
_mit einander
_Es sen
_oth er.
geb en.
_sol d
_ask ing
äs ent
_Lös ung
_Häl fte
z ü
_wh ite
_un be
_ex cept
_te xt
pr äch
_ele kt
_h ous
_D ruck
se it
_P flanz
aus e,
_con cept
_ar en't
än gt
_bring t
_größ er
_fas zin
_"O h,
_mot iv
_leader s
_neigh bor
p iele
_b acter
_f rei
_das .
_al ten
_ne cess
_könn te,
_ent scheid
_Ein z
_bet rach
_ben ötig
_Chin ese
_Str om
_komple tt
r om
s on
f ,
_s ent
us e
_M c
_em pf
zeit ig
_kont roll
S :
- H
_b ir
ier ,
all en
_pl ötzlich
he im
_oth ers
_comp et
_"W e
_ 000
_w ish
_to wards
al ter
_be ide
us ion
_B akter
_K an
_so on
_war m
ib ility
_ge k
ik ,
_back ,
_bek am
_hal ten
_schaff en
_ ä
_re ce
_K en
_H inter
ore d
ated ,
_system ,
_abou t.
k s
_d essen
_S au
_A ug
stell en,
_Se x
_verb reit
_beh and
_design ed
_bede ut
_cap ital
_abou t,
_h it
_e vol
_n immt
_z un
id .
and .
_are as
ien st
ult ure
_pass iert.
lag en
_discover ed
gestell t
_n ice
_so ftware
_N ur
_say ing,
_stell te
_Krank enh
in a
_m üs
_h er,
it or
_B el
_B ank
_un c
_sp ielen
_sag t,
heit en
erst off
_gu ess
_Komm un
_h ing
_O h,
_Möglichkeit en
_veränd ern
_ ö
. ,
_p ark
_this ?
_V on
_Be wusstsein
_sag t:
_Jahr en.
_ph one
_gesch ie
_hand s
_fin ally
_lik ely
_ey es
_extra ordin
_chem ical
apt op
_ äl
_s onst
_B i
_wir tschaft
_on to
_N ie
ab häng
_Sch n
ac y
ict ion
_Okay .
_Wach stum
utzut age
_m is
or ten
_re ag
_st ick
ab et
_mo der
_ch ance
our ces
_nach zu
sel ves.
_Gr en
fü ll
_show ing
_bring en,
_Wissenschaft ler
m a
_b ist
or t.
_S ituation
le ist
_E ink
reat iv
_Vor stell
_bef ind
_Bild ung
_erzähl en,
_int ro
_Sta aten
_mult i
_sozial en
- h
_f am
_c ities
al es
el t,
_T at
_T ro
_M ars
_an zu
am b
eit er
oo se
_Be g
_Re cht
_hum ans
_produ ce
führ t
_versteh en.
ole kü
e ch
_w ähl
_A fter
_A ustral
_K olle
_se par
ür f
_Te ile
_bas ic
_app l
_stand ard
_typ e
_hosp ital
w iss
_v ac
_l änger
_zu erst
_H och
_j unge
eh ler
_Re aktion
gr ound
_Mit gefühl
p re
f eld
ar i
_T err
_P sych
_Sch auen
_car bon
ren g
_zeig en.
_str ateg
_Technolog ien
_Bü ro
_scient ific
_Lie be
_gesam te
_Fort sch
k re
’ s
_M ut
_K e
de .
_li ved
_le ben.
_bet rachte
_Stud enten
_democ ra
e c
_a kt
_an statt
_le ben,
_wer t
mer z
_school ,
_b ald
om eter
_se he
_for ce
_dram at
i ben
_s elt
_z erstör
_le icht
_he ut
_Er n
_Ding en
_komm en.
_einz ig
_Gen au
_nutz en,
_pot ential
m ark
n ehmen
_b ie
_R uss
gen ommen
_Le id
_con fl
_bit te
_dire ction
_char acter
_particular ly
_ersch aff
_Netz werk
_Beweg ung
_ »
re cht
is iert
ig t.
_W ohn
_T V
_you 'd
_E g
_R ich
pp ed
ated .
_verst and
_arbeit en,
_dafür ,
_Fr anc
_cult ure
w esen
_h ot
_L abor
_se quen
_know s
_big gest
_him ,
_interess ant
_partic ip
-P ro
_m ut
_ver urs
_so fort
_go .
ät ze
_Was hing
_lar gest
_dra ußen
_Ze ich
_Beh and
_i ce
_b ank
ed om
_be in
_E d
_re f
_people 's
_An y
_Ge ist
_Wh ere
_ges pro
ile d
fr ont
_4 00
_Plan et
_struct ure
_glück lich
_Größ e
_w es
at ten
_e hr
_in vent
_D et
_H el
_Z ellen
_wor den
_com plic
ik .
ip s
_gesch aff
_cap t
itä ten
_bestimm ten
_repr esent
_bir th
ie ll
_f ro
el ne
_r id
_me ist
ib t
_ge arbeit
_Te lef
_groß er
_eff ic
_OK .
v iel
er ve
ie gel
on y
ind est
se hen,
_ver tra
_er halten
ist s,
_sa f
_Aus wirk
_Her r
_him .
_konn te.
_kom pliz
_extrem ely
ID S
- Z
H :
_w ater.
it ies,
_n ine
_to ,
_Sp rach
_Mein ung
_Gesundheit s
g lie
_L auf
_mo ved
_1 .
_gut ,
ün ft
_Ide e,
_beste ht
_patient s
_schwier ig
_Länd ern
_Dav id
i ar
on str
_m ountain
_f ill
_A g
_R ess
_Sch ön
ob il
_any body
_back .
_verb unden
_Wie der
_rel ativ
_Is ra
_bekomm en,
_scient ists
_Gener ation
_Stimm e
_May be
r ig
er ap
_p leas
_A re
un t
_E ff
_Wh o
oss ible
_gra ph
_ging en
_intell ig
_schein t
o s,
b ald
ar ily
_D ah
aus end
_2 000
_Re ise
_wur den,
_dann ,
_einfach e
_trans l
_supp osed
_schaff en,
_tot ally
d essen
l icht
- g
- N
en :
_w ild
ier .
_H in
_al tern
_V ol
ain ,
_every where
_lo k
_Mit te
enschaf ten
_w ater,
es en.
te ile
_k ur
im ul
_sich er,
_sh own
_fe et
_chang ing
z ellen
_m ember
_h ast
_H imm
_li ves.
we il
_dem ,
_Ar mut
_qu ant
_spe zie
_technolog y,
_pers pect
_che ck
wach sen
_knowled ge
f re
_w ären
ge hen.
_P al
_Z ust
_Le ben.
per atur
if iz
_ro ll
_ra us
_sec ur
_ans w
_cou n
_ev idence
_tin y
_hig her
_d anger
ere ,
_B aum
_so d
_P aul
_se a
_bring en.
_imag es
_15 0
_pict ures
_gre w
_Städ te
_Är z
_in n
_A uch
_T re
_an g
_con nected
ually ,
_zurück .
_"H e
_pop ul
_bekomm en.
äus ch
_frü her
_intell igen
_cit iz
_favor ite
h ält
_t ar
_d ynam
_s il
_n ar
un e
_B ill
os en
_geh t.
_Grund ,
_wichtig ,
_fin anz
_funktion iert.
_lern en,
_coll abor
nah men
o es
ü cht
_th reat
es te
_l aun
_B en
sch ließ
im al
_Ver gangen
pl ant
ieren de
_start s
_car ry
_dec ad
_app ear
_Beis piele
_cas e,
_del iver
_läs st
_Umgeb ung
_d ank
_A rab
_l ose
_M ost
_E ven
ail s
_technolog ies
_trans port
_All es
_Ze ug
_Forsch ung
wind igkeit
_vorstell en,
_Richt ung
m p
g än
- up
_d eine
_l au
el t.
_an ges
ess en,
_So hn
_mach t.
ör p
rie f
ore .
_komm en,
_kl ar,
_möglich en
_schnell er
_veränd ert
_Gew alt
_terr or
_Entscheid ungen
_surf ace
pid em
w ür
u ly
_b unch
_n erv
_c ross
_A sp
_U hr
_do ct
_de press
_en j
_dis app
_führ t
merk samkeit
_erkenn en,
_Lond on
_prin ci
z ogen
_imp ossible
aut ,
_arbeit en.
_sound s
_certain ly
_Veränder ung
_l assen,
_be wegen
ur f
_F unktion
um .
_ihr es
_away .
komm en,
b od
_b ild
or s,
_n ied
_l in
ut en,
ro lle
_L ook
_H um
_r ichtige
_cl im
_good .
_Auf merksamkeit
_Nach bar
_plac e.
_behav i
u pp
h o
z un
_in e
_F ing
_F rank
iel t
_beginn en
_walk ing
_cr is
_invol ved
_m ist
_p hen
_l ös
_B aby
ier end
_L os
_So ftware
_some where
pr ü
_rem ain
_before .
_bess ere
_bo y
_Zug ang
_wus ste
_et c
t otyp
at ors
_n obody
_A ct
_W and
_M uster
_F le
_N A
_R olle
_hand ,
_med izin
_Stud ie
_Pr iv
_nä her
_Bezieh ung
_nuc lear
l änd
g t,
er b
_w ichtige
st re
_in f
_S m
sch w
uf en
_j ump
th ough
_tr ial
_mach t,
_Ver l
_groß es
_Or d
_dr ive
anc es
_verw enden
_nam ed
bo ard
_hö her
_Bedeut ung
g t.
o ke
k el
_s itz
ar .
_er schein
th ing.
ak ing
_want s
way ,
_ze ige
_big ger
_rem ark
_change .
_verw and
_develop ment
_organ iz
schaf t.
_b urn
_h or
_g as
_l uck
_un möglich
_have ,
_le av
ted .
ru pt
_Zeit .
_brain .
_irgend wo
_jemand en
_min ute
_colle ag
_Ihn en,
_Rel ig
d om
ow .
_K ohl
_de te
_Sp aß
_3 D
_Me hr
_Is lam
_sign ific
zus ch
_quick ly
_laun ch
u x
is ierung
_v ide
_we bs
_K ons
au ber
ring en
_nat ür
ism ,
tem ber
_ret urn
_dah er
_ern st
_Wirklich keit
I T
f ass
an te
ar y,
_be we
_ver n
uch s
_" R
_r ichtigen
_C ol
_ex t
ted ,
_mach e
_cl in
_einz elne
_spec ific
under te
_Afric an
_watch ing
_Produ kt
_writ ing
_sym bol
u be
_t aught
_m erk
it iv
ir men
sch ie
id ge
och en
ick s
_word s,
_ur ban
_auss ie
inos aur
m ,
al y
el te
_M eter
_me ant
_Le ist
_ent schied
_Ein es
_percent .
land ,
_Kon fl
_cent er
_dise ase
_Rich ard
z we
m aß
or es
ing en
_we 'd
_Al ter
_di agn
_will .
ple x
_find ing
igkeit en
_tell s
_nah e
dr ess
_stre et
_contin u
_Real ität
_p ush
_l ag
ent ly
_ich .
_Th ose
oll en
_hel fen,
_countr y,
_aff ect
zust ellen,
_tool s
_imm edi
_phen omen
- in
f ore
_w är
_the ory
ar kt
_M olekü
_G u
ung er
_H ü
_st ärk
_for est
ik en
ik el
ör der
_Vor stellung
ism .
_versuch t
_gef rag
_Dar w
iqu e
_sug gest
_trut h
0 s,
K :
_s we
le i
_k aum
_G alax
_K ern
_N orm
_Z uf
_könn ten,
gend es
_heraus find
_acc ount
_aff ord
_anal ys
_Geschich te.
_cle an
mö gl
_Könn en
_Terr or
r ate
t est
k .
- U
in ing
_w inz
_s ituation
st ück
_G re
_K ur
_ab ,
_sch au
_sch ütz
_real ity
_"W ir
_gleich zeitig
_konn te,
_Med izin
_stor y,
_gener al
_fre edom
_resp ond
rib ute
_ment al
_d omin
_s and
as t.
_b ur
_f ram
_G el
_G anz
ier te,
_Re gen
_Ein fluss
_find et
_bo ard
_entwick eln
_bus ines
_hund ert
_contin ue
_begin nt
w eit
h a
o s.
p end
_d augh
es en,
_h äuf
_g alax
_be .
_B erg
_er mögl
_ne un
_com bin
_vor .
pl ac
_mehr .
_wür den,
_Beispiel ,
_Bü cher
_conc ern
_attent ion
_nachzu denk
h el
m .
b eh
_t ask
_th row
_K osten
_ab ove
_bra chte
_ad ult
_Im ag
_him self
wir tschaft
_fut ure.
_veränd ern.
_zweit en
_th re
es ign
_e arth
_l a
_B ud
_an fang
_ver t
ation ale
_man che
_C on
_mus s,
_bin ,
oc i
_heiß t,
_Aufg abe
_pur p
_Wör ter
_ $
ö t
at iven
_to o.
_M or
il ,
se h
_K ong
_P ot
_N ein,
_J o
_C he
_In vest
oll y
aut en
_gew alt
_sort s
_Univers ity
_Zw eit
_Dah er
l er,
ö st
_k osten
_z ahl
ic ian
th rop
_sch reck
_pl ast
äch tig
_gr ünd
üss el
_soll te.
_sm art
_dec ision
_Sach e,
_gel ang
_number s
_Univers ität
_allow ed
_Gef äng
_einzeln en
_Kommun ik
0 .
l age
on nen
or en.
_f äll
ar f
_S w
_S omet
_die jen
et ic
_B ot
_P ort
_pro gramm
ant ly
ze ugen
_her .
_act ual
_inter view
_wichtig er
_Mal ,
ständ nis
dr ück
_includ ing
_Oberfläch e
_Präs ident
_sod ass
c es.
R :
_w ann
ar ian
_er z
_N iger
_do c
_O p
_ent stand
_bra nd
_wür den.
_spe ed
_Se e
_allow s
_arg ument
_Herausforder ung
m iss
v ard
_S ign
_to .
_k re
ein and
am es
_K er
ck er
_de b
_de ut
_ges tell
_3 5
gr öß
_Ges präch
_Afr ik
_Ent deck
_stuff .
_gesam ten
_Straß e
_übr igen
n ess.
g s
on ent
it zen
_k ost
ier enden
_F ehler
_more .
_bes uch
_ra in
erm an
_zeig t,
_exp ens
_eing es
_erk ennen
_Stra ßen
_bestimm te
loss en
_Oze an
_enj oy
r y,
- to
_w is
_b al
sch ön
sch uld
_es sen
_St amm
_sh ot
_som eh
_tr uly
_mus s.
_question .
_brain ,
_Mus eum
_che ap
_success ful
_trotz dem
_infl uen
_Ress ourc
_c ook
_y et,
_M a
_us ually
_mach ten
_Fra ge,
_zum indest
_pre c
_Ph il
_econom y
imens ion
_erh ö
w ill
ü hm
in ct
_w und
it te
_c at
ig e,
im en
_st imm
_ch oose
ick en
_ges ehen,
_sol chen
_better .
_book s
_Ob jek
_ment ion
_emot ion
_prov ide
_priv ate
_occ ur
d s
p unk
it es
_S old
am in
ier s
_H y
_auf grund
gen ie
_at tra
_oder ?
ak es
gr ünd
_dec is
sche iden
_fin anc
_resp on
_aut omat
_Fähigkeit en
_mess age
_Flug zeug
_Har vard
_k il
_D en
_B iolog
_ab ge
_r und
_pro gress
_qu ality
_Mus lim
_Kon zept
_fas cin
_chall en
_Son ne
_ähn lich
L :
_d rop
_H igh
ul pt
os m
_könn ten.
_pe ace
_gew esen
_arbeit e
_countr y.
_pra kt
_girl s
_änd ern
_mole c
n ehm
n ess,
l ös
g ere
an a
_o xy
_j ungen
ste ck
_geh e
_pass ieren
_Amer ika
_plan et.
_read y
_voll er
_erreich en
_tradition al
z ,
_a ktiv
it ute
_y eah
_M ond
_M orgen
ach e
_K rä
ul f
_sh ape
_An gel
stell en.
_disc uss
_erzähl en.
_Ger ä
_Zahl en
_link s
_avail able
b uch
it ual
or en,
el es
_B us
_an gef
_R om
ön ig
_des p
_up on
_Ver tra
_Ne u
_Ind ian
_stand ing
_gener ation
_führ en
_schaff en.
_mass ive
_spac e.
_ess entially
_Pap ier
_Kam pf
_Dor f
o om
as ed
re pr
_n ehmen,
_c ause
am .
_re p
_N o,
_go al
gen er
_nur ,
_happ en.
_technolog y.
_Geh eim
_school .
_val u
bild ung
_sow ohl
_vo ice
_Ir an
_ständ ig
h em
a im
k r
ä lle
v it
_h ell
st a
te ten
_l äuf
il dern
_K örp
_er le
_r ate
_do ctor
_he utzutage
_tr ä
_An other
_ro t
_He im
_Se cond
_ide a.
_Seit en
_Inter ess
_ey e
_vir us
spr ün
_squ are
_dad urch
_Firm a
d lich
z immer
s ystem
s ichtig
_t äglich
_e cht
_S ä
_zu .
eh ic
_Er find
_Er wachsen
_But ,
_dat a,
_glob alen
_"D ie
_erzähl en
_Wahr scheinlich
_Zwe i
_crit ical
_veröff ent
_Krankenh aus
m us
_s on
st ad
_z us
_wh e
sch irm
_Pro te
_Se p
_4 5
_ke pt
_incre ase
_recent ly
_Archite ktur
ilos oph
_Schü ler
l ern
' m
_S and
_c art
_be ,
_F akt
_se le
ab r
_O per
_not ice
iv ity
lle g
_ro le
_lie b
_Geb ie
_Lie bl
uz z
it e,
_to wn
_l as
ur es,
_we b
_L ab
eh nt
omm en,
_kein er
_sel ben
_woll te,
_erw ähn
_Frau en,
_bekomm t
_ear l
_mor gen
hy th
_Europ a
_redu z
_cal cul
_excit ing
u ber
z ess
l äuf
ü st
' t.
er y
_k ünst
_M IT
ra y
_B all
_this :
_C aliforn
_ex h
_Sch iff
_gro ss
_tun ?
_off .
_gew öhn
_str ug
_Ob jekt
_Grupp en
_iss ue
_rul es
m äß
p ret
_b aby
ar y.
_c old
_p en
_p ort
_v ehic
_W ik
_D el
_K omp
_er g
_Sch ool
_like .
_Ver antwort
ring en,
_pre vent
_Problem .
_gra du
_sl ight
_Br ust
amp ;
_centur y
_Tatsach e,
_Bevölk erung
_extraordin ary
_Franc isc
h ang
ing ly
_S er
_k ämpf
ow s
_al te
_am b
_did .
_any m
_any where
_ad dress
_hin ein
_irgend ein
_high -
_lar ger
_Geschich te,
_zusam men.
_herauszuf inden,
P :
_in se
_I dent
_l ower
_l esen
_zu fäll
_is :
_N ummer
_j ud
_wer en't
_Ge legen
_oth er,
ip ed
_Ein er
_no ,
_Man chmal
_lie ß
_komm un
ri pt
_great est
_gesch ah
_Reg eln
_darauf ,
_moment ,
_begann en
ever ,
_außer halb
_großart ige
_öffent lichen
_fam ous
_Beg inn
_f il
_c atch
_D isk
_G em
_F il
_In tell
_über rasch
_Ver gleich
ör t
_lo ved
_cap ac
_Afric a.
_compass ion
z er
or row
_n orth
_S al
et ze
_B .
se hen.
_F ehl
_H und
_über le
_Le ben,
_surf ac
_tem per
_Fin anz
l ant
ä st
_h arm
_A IDS
_l abor
ge hen,
_P ak
ann t.
_gen ommen
pl atz
_bis her
_"W ie
_creat ive
bere it
_Dam it
_Sep tember
c ome
b ie
B .
8 ,
_d iv
_w est
ing u
_W ür
_E re
ber g
ier te.
_er möglich
_auf re
_In genie
_Be zug
_soll ten.
_par ent
_tre ffen
_"T h
_aut hor
_ries ige
_Afghanist an
r ound
i os
h il
T :
5 ,
_t ag
_d auer
_S am
_M ont
ra ge
_P ass
_N och
_C ity
_not .
_di vers
_Afric a,
_Kar te
_Kont rolle
_Werk zeug
r if
at te
ar r
_A ußer
_z ähl
em and
_B is
_do ?
ick ,
etz t.
_will ing
_Wh ich
_Kind er,
_off ic
_ra nd
_day s,
_problem ,
_gem acht,
_end ed
_hö ch
_det erm
_var i
_impro v
_ign or
c on
l ad
as s,
or s.
_in ven
om s
_G al
_un s.
op s
ul ate
_pass ion
_dr ink
_bek annt
_fun n
_Gl ob
_organ ization
_met hod
_Stud ien
_Ste lle
_plac e,
licher weise
_fühl en
_writ ten
_dest o
_aud ience
_wach sen
_neg ative
_morn ing
_gelern t
_Künst ler
_Imag ine
i pl
_i lleg
il .
_er r
ell er
_Mensch heit
sp re
_Or t,
_lie ben
_em ploy
_komm t,
_"I 'm
_produ ction
_Mon aten
_schl imm
_Mann ,
_group s
_ber ühm
schl uss
_Son n
_spac e,
_wunder schön
bra uch
_Wes tern
h ode
er c
_m ath
_c ru
_c a.
_c row
_T al
_zu ,
_re port
_N ä
_Er inn
_kann st
olog ie
_res ources
_question ,
_versuch t,
_Q ual
_land sc
_emot ional
_Spe z
_stra ight
_poin t,
_konnt en.
_Demokrat ie
_neighbor hood
_äl ter
repr ene
_f oss
_p an
il den
_an tw
se ite
_L ö
_And erson
ul s
ab el
_Re gel
än ge
_cont ain
_verb ind
_import ant.
_ü b
_hoff e,
_interessan te
_sagten :
feren z
_NA SA
b ü
s ame
ä b
R I
& amp;
_s itu
_th es
_m at
ar um
_A k
ur b
ur es.
ic ag
_was te
_go ,
_Problem ,
_great er
_nun ,
_tre m
_wrong .
_terr ible
_event ually
_Right ?
_heut igen
p ol
b et
f alt
_c amera
_ver gleich
_P f
_H all
_Z ivil
_In form
_two ,
_gut er
_through out
_damit ,
_entw eder
_exam ples
_hom e,
_Masch ine
_non -
_ster ben
_offensicht lich
u pt
m s
9 ,
_s al
_s us
_A me
al ten.
ro h
_st age
_for th
_for get
_R oll
_sich .
be weg
_or d
_tr ue.
_gr ün
_Ding e.
ün sch
_app ly
_dat a.
_Chin a,
_ble iben
_Entscheid ung
_Ergebnis se
_sudden ly
_ult im
_rand om
l es.
1 ,
st ru
_n ut
_die d
ut sch
_M at
_G ot
_al though
_C o
_dem onstr
_get ro
_durch schnitt
_einfach .
_hin zu
_Ind ivid
_Geb urt
_reas ons
_resp ect
_sah en
_Schul en
_becom ing
_genet ic
_Klim aw
7 ,
c es,
l ose
p s
er :
_t at
ch ,
_m atch
_f ehl
_l auf
_W ald
_M ill
_ha ll
_F äll
_Th ink
_they 'll
os e,
_think ing,
_durch ge
_Ch icag
red it
_different .
_davon .
_gef unden
_ser ies
_hom e.
_Son nen
_frü h
wass er
h aus
_in j
_ein ander
_is ol
ke le
_R u
_ab stra
ust ry
_Te x
sel ves,
ri ere
_Ber uf
_var ious
_recogn ize
_enc ou
_Jed es
_fem ale
_Pflanz en
_ .
u hl
i o.
z ul
b ank
_A hn
_l aut
_D an
icht en,
_G ang
_F en
_F rieden
um s
_J ul
_sh ift
_aus sehen
our nal
omm en.
_mehr ere
_mö gen
_gew iss
_selbst .
_wel cher
äl tig
_sur ger
_read ing
rib ution
_environment al
_beein fl
_milit ary
_fur ther
t r
_w on
_s ummer
_the or
_n ütz
_l ate
_M ir
_K ol
_se e.
_H irn
_li ber
_C ong
ad ,
_not ic
_Y our
ring en.
_zurück ,
_str ess
_eff ekt
_jemand em
_verwend et
_eg al
_Jahrz ehn
r as
_a ware
le cht
is es
is ation
_k ürz
un ,
_r ule
_sch reiben
_he av
_sh ark
_Ver füg
_te lev
_Ge orge
_You 've
sel ben
_gew inn
_fin al
_verl oren
_ass oci
_Uns er
_deg re
_Prof ess
_Vergangen heit
wür d
_Gefäng nis
w as
i at
_T wo
_G erman
_mit t
_Ar g
_Ver ständnis
_pr ice
_Or te
_car s
_Tag en
_trans par
_wichtig .
_fin ally,
_besch reib
_7 5
_walk ed
_Ö ff
_Inst itution
_jour ney
frast ruct
i ant
a ign
s er
_S a
_W ichtig
_y es,
_B ein
_R and
eh me
os c
_sp ect
be wer
ure d
pl ay
fr ikan
_sur ve
_arbeit ete
_before ,
_vis ion
_Nachricht en
ersp ekt
_Ere ign
_c amer
al og
_T as
_G old
_N ame
_C om
_con cl
_2 2
_gen utz
_You T
_wom en,
_rem ind
_sec ret
_Am az
ortun ately,
_kill ed
_dev ice
_entfern t
_Organis ation
_erre icht
rän k
_Gren zen
_confl ict
_Auswirk ungen
h am
s weise
_a head
_w in
_s or
_s ource
_f est,
_l ösen
_we ap
_G reat
uf act
_K ir
_K urz
end ous
_le ist
_sp richt
_In se
_In str
_2 .
ud e,
änd e
glich en
ile t
_Or ten
_soll en
_around .
_Geb iet
_frag en,
_ber ühr
_unglaub liche
ätz lich
ateg or
_Fot os
_Nahr ung
_countrie s,
_geze igt
_Mathemat ik
_wund erv
_Pak ist
_s enten
es th
st ieg
_f it
_T och
_D on't
_E th
ier ter
id ing
_K ore
_K reativ
ke y
_auf zu
_O pf
_da ,
är m
yp oth
alt ung
_exp and
_Ste ve
_pop ular
_außer gewöhn
_Fe uer
_wait ing
_Isra el
m utz
g o
b urg
_b auen,
_b auen.
_b omb
_in frastruct
_c ust
_we alth
_K önig
_ver fol
ann t,
_An wend
_sag en.
wer ke
_ind ustry
_underst ood
_bestimm t
_normal erweise
_Regier ungen
_mob ile
_Intell igen
_a fra
_d ritte
_s outh
as en
_S il
_ist ?
sch ieden
_F irmen
_H aut
ill e
ess er
_J an
au p
_dem and
_vor aus
_bl au
_einfach ,
_soll te,
_gut es
ichte t
-S ch
_el se.
_famil iar
_führ te
_teach ers
_Wor te
_elect ron
_Qu ad
_cho ice
_Kom plex
_fert ig
_Bakter ien
_intellig ent
c y,
ü ß
3 0
at ory
_e chte
or ben
_A lex
ir es
_B ang
_un l
_un ver
_" V
th ing,
bar keit
_gew ord
_comm it
_wen ige
rach t.
_Ph än
_old er
_funktion ieren
_Ger ät
_room ,
_iss ues
_Part ner
_enorm ous
_grund le
_Hoff nung
_Som mer
_tar get
k rieg
_t iss
_S ub
ig ur
et te
_B ienen
ach sen
_ver me
_P ost
_H om
_er forsch
_V ier
_le id
_O h
_It al
_pl at
_po et
_lie f
_Gen e
_6 00
_Schl af
_ass um
_Pol ize
_hy d
c y.
h ers
m ach
F :
_m id
st en,
_A ud
_D is
_B and
_un abhäng
_man ip
_tr ick
ug end
_[ "
_fas ter
_prof it
_schle chte
setz en
_nenn t
_Bed ing
_Stat ist
_itself .
_aud ien
_Char les
w .
l ungen
b ung
b rit
er ven
_h ole
_c ode
_v ict
_l ad
_W id
_ver mut
_un er
_P at
_P re
_H aben
ver b
_r an
os h
_ent reprene
_Ge we
_immer ,
ition ,
teil t
_par ad
_mind s
_spiel en.
_Bed ürf
_innov ation
_cra zy
_result s
_iP h
_Darw in
e g
el y.
_T rä
_M itt
_M ode
_sie ht,
au st
_Es s
_work s.
ne te
_hel fen.
_Aus druck
_use ful
_sur round
_schw ar
_Mon at
_mone y,
_unterschied liche
_orig inal
_obvious ly
_nachdenk en,
_Medik amen
h e,
o z
o tel
o int
_H is
_N am
_have .
ib l
_com mer
_Sch we
_bec ause,
_Be griff
_dar in,
_bl oß
oss en
_around ,
_em ail
_end ,
_gesch rieben
_interess iert
_met ap
_expl or
_mov ie
_voll ständ
_exc ited
_mem ory
_lim it
frast ruktur
_Erk ennt
_elekt r
_Himm el
g rupp
y ber
_b ud
_B ru
_L ib
ell schaft
_wor st
_don e.
än gen
_tra f
_Man y
_geb oren
_einz igen
_Inter esse
_pie ces
_Stat es,
_comput ers
_Wirtschaft s
olly wood
_someh ow
_kommun iz
_trem endous
brit ann
z og
_t ens
is ieren
_l augh
un sch
_P osition
_st amm
_st reng
der ,
_wor ry
_sh ock
_bes itz
_ac cept
zie hen
_Intern et.
_glob ale
_organ ism
_lern en.
ett bewer
_acc ident
_erinn ern
_erreich en.
_zusam men,
_scre en
_Innov ation
_amerikan ischen
_respon se
d ings
_a st
_S l
_l ust
_k reat
_D re
_B ig
am i
qu al
_tr ouble
_sag ten,
_who se
_sa fe
_sa ving
_res ist
_bin .
_Ind ustrie
_well -
_sk in
_Frau ,
_erinn ere
imens ional
_histor y.
_clear ly
_Lin ie
_Stand ard
_Amerikan er
_selt sam
_financ ial
_Spez ies
m asch
at om
_g ain
_p ound
ig te
_T or
ro ph
ere i
_N or
_R ä
_R ober
_r ange
_com fort
_con text
_more ,
_Ch ines
_bl og
_ze ich
_help ed
_form s
_"H ow
_cult ural
_sens e,
_biolog ical
_Yeah ,
_wusst e,
_secur ity
_inven ted
4 ,
_re lev
_" U
_my ster
_tr iff
_her unter
lie b
än n
_mö chten
_Tag ,
_Unter stütz
br uch
_Gl auben
land .
_Weg ,
_mod els
_teil en
_ur sprün
_gam es
_childr en.
_Mex ic
_complic ated
y pt
_k ulture
_und ,
ur m
_T om
_E xt
_so gen
_L iste
_er stell
_man ufact
_at mosph
_aus zu
ang en,
_con sequen
_us es
_Al tern
_Jahr es
_problem s.
_bring ing
_hal ten.
_belie f
_Intern et,
_inst all
_art ic
_mone y.
_room .
_dest ro
_Bezieh ungen
_Hö he
_veränder t.
_ö k
w ahr
i kt
_s en
_s an
_e p
ar ter
_to m
_D rogen
_G P
_st ore
ver se
de ut
ah men
_pl ann
_cl oud
_wirklich ,
_vers ion
_str ange
_erzähl te
_Person en
_Schl üssel
_nenn en.
_frü hen
_bod y.
_inform ation,
_Mich a
_ak zept
er 's
er t.
ch e,
ch t.
_d anke
it är
_v erein
_D rit
_D ienst
ic a
ic ians
_E tw
_E ast
_ver antwort
_ver füg
_L ad
_ag ric
_Gesch windigkeit
_off ice
_dr iving
_19 4
igkeit ,
teil ung
_For men
_eff ort
_poss ibly
_At lant
_away ,
_fut ure,
_red en,
_stat ist
_Tra um
_änd ern.
_Krankheit en
-I n
_syn th
schie de
_übrigen s
_inse ct
l es,
_d ouble
_in tens
_n a
_W al
ur y
_T im
_T anz
_M en
_M os
_M r.
_F lie
_P il
_er ne
_N ehmen
and a
_C olle
_sein es
_2 ,
_2 3
_Ge fü
_mich .
_pr ison
_ele ment
_Land ,
_Fr om
str onom
_teach ing
_prof ound
_opp os
_impro ve
_Eben e
_ap art
_etc .
_beeinfl usst
r sch
c o
_d ür
as s.
re ct
_n ight,
_ha ir
am t
_so bald
ag en,
_sp r
ät zen
_Te xt
_ste ck
_einfach en
_ide a,
_10 ,000
_old ,
_Americ ans
_9 9
_Groß britann
_sit zen
_vorstell en
_centur y,
_meet ing
_Meer es
_fu el
_dollar s.
_z. B.
_appl ic
t ter
- jähr
nd e
st e,
_n ein,
_k m
el ten
em ents
ic es,
_L ike
_st immt
_auf geb
ff ic
ern e
_St an
_We ise,
ze p
hl en
es. "
_something .
ition .
_most ly
_"W hy
_gew orden
_wieder hol
_versch wind
_contro ll
_eben so
_drug s
_Sek unden
_childr en,
_entst eh
_Kolle gen
_cust om
w ahl
st ab
ig r
_H äus
_J er
_they 'd
_sh ip
_The orie
_ch ines
_ch air
_Sch utz
_gen annt
_te en
_ra ise
rach t,
_zie hen
_Möglichkeit ,
_iss u
_near ly
lo ad
_camp aign
_industr ial
_einzig art
_Washing ton
r y.
z .
m mer
k ur
b it
s :
_T um
ter m
_G et
end s
_with .
_In sel
_In frastruktur
_Er zähl
_sa ß
olog y
_Re p
_Pl ast
_commun ities
_größ ere
_high ly
_Fr ü
_nah men
zust ellen.
_follow ing
_sat ell
_Kap ital
_convers ation
_achie ve
_Such e
f el
ö se
ie lle
_b ought
il ing
ach ten
_auf t
_do or
_In stead
_Sch merz
_ma le
_did ,
stell e
_good ,
_happen ed.
_person ,
_Stud ent
_Str ateg
_erreich en,
_bleib t
_Aben d
_Sau erstoff
k on
_t ax
_d au
_d orth
_h art
_h orr
_v ul
_D at
_D ort
_M ach
_M üll
icht s
_G o
_L at
_L ink
_V og
ce ed
_St unde
_Sch rift
_vor be
_ent h
ück en
_Sp r
_happ iness
_Man che
_pass ierte
igkeit .
ction .
_example .
_Earth .
_Lös ungen
_conf eren
_Hil f
t ?
n ow
_d unk
_w ire
_m er
_m ix
_K amer
ly mp
_J ung
_sh oot
iz e,
_ent lang
_20 .
_lie gen
_Art ikel
_Ab s
_such en
_entwick eln,
_Lebens mittel
_project s
_leg al
_treat ment
_object s
üt ter
_Ärz te
_slight ly
u ,
5 00
_b uch
_h us
_M assen
ic es.
_F eld
_ver mittel
_P op
_L ang
_auf hör
ce p
ib iot
_ge geben
_aus ges
ub ble
_ag re
_soll ten,
_spe ech
_Ind ia,
_Fl uss
_brain s
_eigen es
ium ,
_cent ral
_book ,
_possible .
_rad io
_eben falls
_Tw itter
_Tem peratur
r ical
i h
ou se.
_A p
_l aufen
_M icro
_P an
_L och
de te
ab les
_ge be
_Sch lag
olog ical
_ges ehen.
sp rech
_got ten
_"I t
_arbeit et
_feel s
_Sach e.
_Technolog ie,
_On line
_"O h
_experien ce.
_sw itch
_kenn en,
_jour nal
_Händ e
_direct ly
_Tit el
_Telef on
_Wik iped
d ing
x im
in o
at ic
on ym
it at
le un
is st
_K op
_H olz
_j etzt,
_r om
_with ,
ad a
_1 ,000
iz ient
tern ,
_Sp iele
_build ings
_größ eren
_chang e,
_run ter
_vis it
_natürlich ,
_typ es
_Tod es
_law s
_fly ing
_orig in
mosph äre
_fahr en
_effic ient
_häuf ig
p ass
f äh
_t ap
nd er
es tens
_c off
_v ast
_l ack
_W ol
ro s
_B ost
_ver letz
_un ge
and id
_r at
th al
_O ver
_not ,
_An satz
_ra re
_"W arum
_dec ide
_pol ice
vent ion
_old .
_Schl uss
_food ,
_enough ,
_fühl te
_myself ,
_Medik ament
_Rober t
g ra
ü gen
- st
_o d
_g ather
_S im
al ten,
_k o
_we ird
il ien
_re b
_st imul
_j ün
_ab häng
_J ournal
_not wend
_Ein stein
_tra g
bar ,
_denk en.
_sm ell
_ger ing
duc ed
_food .
_She 's
_seem ed
_Gra d
_train ing
_individual s
_det ail
_Ad am
_konnt en,
aj a,
_Anderson :
h ö
_s ad
st ag
_A uge
_ha ck
ol den
_ent wer
lie d
ord n
_pa id
_Land es
_mag net
_health y
_hör te
_Produ ktion
aur ant
_inform ation.
_ries igen
_Veränder ungen
_benef it
_anc ient
_ä uß
_Hinter grund
_Ressourc en
M S
- J
f isch
st ehen
_l ines
_zu k
ind ern
_re leas
_al gorith
_ge le
ang el
_act ion
_bas e
_Teil en
_weiter hin
_schön .
_dig it
_Tra dition
_serv ice
_class room
_gespro chen
2 ,
ch em
_b at
_f le
_r ise
_J ames
_C omm
_Z ell
_what ?
_mehr ,
_Zeit punkt
_ad op
anc y
anc ed
_letz tes
_versuch e
_belie b
_möglich ,
_mag az
_OK ?
_Sinn e
_pain ting
_"E s
_beein fluss
_redu ce
_Vide os
_countrie s.
_doct ors
_Kohl en
b ro
in c
_th erap
_b att
st äb
_f angen
_v e
ut ,
_M art
_M obil
_P erspekt
_r ough
ess ed
ess en.
_J a
ad e,
_Be weis
_Y es,
_them selves.
_pr esen
_back ground
_first ,
_stud ies
_versuch te
fahr en,
_school s
ement ,
stoff e
_Zusammen arbeit
_setz en
ächt nis
_Ira q
_remark able
g reif
k op
ä ld
_m ill
_b atter
st eh
it e.
_e ating
ig m
_k rie
_M ater
_B on
_Th om
_N erven
_J ungen
_man y,
_mir .
_pr int
_bet riff
_find e
_something ,
_woll te.
_Jahre ,
_inst ance,
_näch st
_polit ischen
_Engl isch
_share d
_insp ired
ogn itive
_Masch inen
_mole cul
_Bra z
_proces s,
_bacter ia
_purp ose
_commer cial
_w ife
_h ang
_f lex
is ierte
_W unsch
_k oll
_T imes
_G est
_an geb
_r ational
ist s.
_Ar zt
ies en
ast rop
_ent er
ens ystem
_Re ich
_gl ass
_inter ag
_mus c
_end lich
_dec ade
_Unter such
_ec osystem
_kam ,
_reg ion
_mind ,
_benutz t
nah m
quen z
_Durch schnitt
_bod y,
_Kil ometer
_Nä he
- e
_t um
_s ide,
re ci
_g ent
or fen
_M iddle
_E ind
_K amera
_ich :
iz z
_ra pid
_pre p
_Fl äch
_import ant,
pro b
_better ,
fol ge
_though ,
_System e
_erinn ern,
_Fähigkeit ,
_recht s
_viol ence
_Frei heit
_doc ument
_streng th
p ed
p fe
ü gel
on ie
_e ure
_c e
un te
_E -M
_it ."
_K aliforn
_un tern
_P a
_P ra
ah ,
_tr ib
fr ist
aut .
gl ück
ction ,
_Bl og
_zeig te
_Fre ude
_Bild schirm
_kid s,
_tre es
_small er
ium .
_beaut y
_anal y
_activ ity
_fore ign
_listen ing
_flie gen
_caus es
_bemerk ens
_Geschäft s
_afra id
z if
n am
n ehmen.
a -
s ächlich
on s.
_S atz
_c orn
_A bst
ur op
_T isch
_M od
ra gen
_G ood
_F ein
_on l
_sp ot
_Wir k
_ganz es
_fact or
_creat es
_eing esch
_co oper
_spä ter,
_environment ,
_full y
_Res ult
_jo in
_Männ ern
_bewe gt
_vict im
_zuk ünft
n ehmen,
g in
1 .
_d om
_s ite
_b io
_g ift
_n ehme
_k aufen
_B oot
's .
_F ach
_K ein
_j ene
_r en
_ne uer
_as pect
_aus z
etz en
_nach ,
urch t
sp e
ord ing
_friend s,
_Kar riere
_langu age.
_histor y,
_relig i
_bel ow
_fore ver
_architect ure
_Ök osystem
_proces s.
_altern ative
_Zust and
_plast ic
_desp ite
u ct
i ate
t ag
ü pf
6 ,
en s,
_a frikan
or b
te ch
_k rit
ic kt
_B ildern
_un bed
_un ique
_P ers
im eter
_was .
_J ede
_Z iele
art en,
_Be f
_auch .
_te le
_sel ber
_sel ten
_right s
_heraus gef
_Arbeit ,
_Kl assen
_weiter es
_verl assen
_hät te,
_eng age
_environment .
_Erfahr ungen
_sex ual
_Inst itute
_Punk te
0 s
i us
i op
p flanz
8 .
es ?
_S ter
_M ore
_ha upt
_B G:
_U N
_K rie
_al one
ul t,
_Ver k
_tim es,
_pr ior
_Ein satz
_tra gen
sp ir
_play ed
_cons erv
_help ing
_Über leben
_dach ten
_energ y,
_aut h
_Kre is
_Groß teil
_educ ation,
_öff entlich
_equ al
_Stat es.
-T e
_obs erv
_describ e
_betrach ten,
_dete ct
_Wahrscheinlich keit
_Glob al
_Micha el
r ument
_t able
ie b
ar a
_S ein
_l ight.
_T un
_T ake
sch utz
_K al
_K oh
_Sch le
_Sp ort
_inter pret
sp ap
_part n
_ad apt
_cont ent
_komm e
_wahr ?
_inst rument
_mind .
_Inter aktion
_sign al
_Bü ch
_cost s
_verwend en,
_Zusammen hang
_entwickel t,
_beweg en.
_Hoff n
_kü mm
_"He y,
_ ,
k reis
ä ter
_m ort
_S zen
_l at
el er
ra ft,
_F est
_H al
_C E
_he at
_com b
_2 7
ies o
ät sel
_off ,
_ind ic
ren ch
_hand elt
rat ic
_schw arz
_fin ish
enk en
_Americ a,
_De press
_famil ies
_teach er
_außer dem
_25 0
_material s
_erklär en,
_profess ional
_condition s
_anf angen
_Ken y
_notic ed
_vul ner
w ie
_w ood
st imm
_p uzz
_A c
ut t
el f
uf e
_er ,
ag en.
_nicht ?
ann e
_R em
_r iver
_li ves,
_J a.
_So zial
_sein ?
_Ar me
_Jahr .
_sc en
_ra ised
_fl ag
_Mit glie
isten z
_rec over
_stell en.
_sub st
_dabe i,
_hör en,
_Vers ion
_government s
schl ä
_adv ant
ele br
_Liebl ings
_Disk uss
_Jan u
_plat form
_buch stäb
ü b
_h ält
_g iant
_E ing
_G olf
ind ustrie
ck s
_for g
_St off
_get ö
_pl ants
tern .
_Sp itze
_Ein fach
_Se hr
_app reci
_expl ore
_Schw ier
_mag n
_point s
_Ste in
_reg ular
_benutz en,
_begann ,
_job .
_chall eng
_unterschied lichen
_polic y
_wissenschaft liche
_Europe an
_Sat ell
_challen ges
_vermut lich
m el
a fr
_s ick
_b order
_n one
_W esen
_G ar
id s
_F und
_K o
ke .
_L aptop
_H ack
_ab zu
_ab gesch
_Z ur
_fr ustr
_there fore
_An s
_Ch ance
_komm t.
_sim pl
_turn ing
_stell ten
_At mosphäre
_erw arte
_publ ished
_schl immer
_soz us
_stuff ,
_Gra f
_product s
_colle ge
_wus sten
_stopp ed
_anc est
_geschie ht
_Nie mand
_Schön heit
_Gre en
h ab
ü d
v olle
in ary
_h ost
_in fect
al a
_l angen
_T reib
et ing
ge h
_K ing
_H ig
_H ait
_st abil
_auf b
_sp ür
_sp ort
_Le uten,
_Er klär
_gesch ehen
_brauch en,
_Me chan
_wichtig sten
ement .
_moment .
ismus ,
_focus ed
_pattern s
_grand m
_okay ,
_Fortsch ritt
_citiz ens
_signific ant
zwe if
_decis ions
_antw or
_ änder
p ack
- and
C .
_d anc
_w eder
it ten
it ation
_f old
_S ind
el ess
_K ann
_L es
_H erst
_dass elbe
_St att
_Sch imp
etz en.
pl ace
ru ption
_ag ree
ile .
_much ,
_ihn en,
_Gen om
_Reg ion
_commun ity,
_cor por
_Wer te
_Met hode
_nenn e
_extre me
_experien ce,
_erlaub t
ilos op
_pow er.
_intro du
_ehr lich
_daugh ter
b e.
- term
_m outh
ar tet
le y
is ieren.
_to lle
_z ent
_we ib
ot ograf
_L as
_L iter
ay .
_Sie .
_J unge
gen cy
_O lymp
_at om
_know ing
_cl aim
_Ch ild
_pre vious
_stud ying
_Mit arbeit
_verw ir
_verl ang
_famil y,
_poss ibil
_supp ly
_leben d
_red en.
_"O kay
_sow ie
_Far be
_diseas e.
wär ts
_proper t
_vill age
_evol ved
_Toch ter
C :
_t ausende
at ives
_b ound
_h ung
st ud
_o h,
ou l
_S itu
_A ir
ed y
_re de
im inal
_H aw
est y
_Z elle
_wor se
_ex erc
we chsel
_ch imp
_con cent
are ,
_qu al
_ad dition
_vers us
_cont act
_great .
_sim ul
_ander em
_Wass er,
_bre ast
_„ W
_lead ing
_Städ ten
_fantast ic
_respons ible
_Bevölk er
ival ent
_skill s
_Zent rum
wiss enschaft
_Leid enschaft
_Behand lung
_member s
_capac ity
s um
f ähigkeit
v an
_s ke
_g aben
_to o,
_D rei
_we ight
_you ?
_B io
_der zeit
_F ün
_P ri
_J ack
ist ischen
ist ische
ib r
_at tem
_ent spr
_her o
if ik
_gen es
ör dern
_mir :
_wo hin
_fü hle
_po em
erg ie
_hel d
_em bra
_selbst ,
_produ ced
_child hood
_Zu erst
_Gl as
_How ever,
_Prozent .
_mind estens
_polit ische
_ersch affen
_Tod ay,
_av oid
bere ich
_profess ion
_Viel falt
_Eink ommen
_democra cy
_danger ous
_"Th is
A .
v al
_m aster
_e pidem
_n ehmen.
_c yc
_re chten
_al ter
_er find
_er halten.
_all e,
_do ing.
_Z usch
_O x
_aus gest
_We bs
_Er inner
_Ge fahr
_19 50
_ide as.
_pa ir
_Fre unden
_Unter schiede
_fas h
ograph ic
_Engl and
halt ung
_requ ire
_destro y
_Kohlen stoff
d y
c el
l assen
_t it
_t ough
_c elebr
un kl
et was
_D ass
_G han
_st uck
_N ull
_dies elbe
_Sch e
_haben ?
_vor hand
ob el
_Aus s
_percent ,
_ander en.
_reg ul
_Person ,
_typ ical
_veränd ern,
_Forsch ungs
_Gefühl ,
_bod ies
_invol v
wohn er
_virt ual
_press ure
_Phys ik
_Bä ume
_Öff entlich
_rom ant
i o,
er te
ch t,
_d ritten
at or.
_I I
_S en
ut .
_M ust
_wir k
_K aff
_es c
_j ung
enn ung
_In s
_ge kommen
_noch mal
_ste m
ore t
_inter f
_hin weg
_dis order
_erst es
_De fin
_möglich erweise
_York ,
_Fall s
weis en
_Bü hne
_Gew inn
_col on
_bro ad
_sym met
_Wes ten
_communic ate
_bab ies
_scien ce.
_Medikamen te
_GP S
_unbed ingt
u den
h es
_g ere
is her
_p lease
_k rank
_be is
_M em
_re pe
_st olz
_im press
_C am
_St ar
_Sch uld
_sc ann
_ges und
_tra de
_weit eren
_off er
_dis k
_lie ber
_being s
_schon ,
_should n't
_char ac
_effect ive
_fal sche
_neur ons
_zer o
_Lern en
_betrach ten
_fäll t
_Biolog ie
_Ident ität
_Fen ster
_Drit tel
_Vog el
2 .
u ild
D .
b ahn
_s ister
as te
_g ap
_n ation
_p age
_l ight,
_be ach
ro t
il s
_re ward
all .
_L ast
ag es.
_all gemein
_way s.
hal te
igh ten
_stud ied
_"I n
_question s.
_besch loss
_cell s,
_phys ics
_educ ation.
_level s
_Milliar de
_Kont akt
_canc er,
_pain t
_speak ing
_connect ion
_mot or
_Kn ochen
_engine er
_societ y.
_poin t.
_electric ity
_fair ly
_leaders hip
_Ag ain,
_Relig ion
_anfang en,
_expens ive
t rä
n iss
a e
l äss
W :
5 .
_s hr
an st
_f iel
_f ließ
_S ing
_S un
_c aught
_p ig
_W affen
_y et.
_" d
end ing
_R at
_ent scheiden
_Ver stand
_here ?
_They 've
_Ne ben
bar es
_hand .
_rel ated
_rem ote
_plan et,
_inv is
_acc ur
_cor rect
_job s
los en
_spend ing
_miss ing
_Gener al
-b ased
_Eig enschaften
_wach s
bring en
_feed back
_Brit ish
_quant um
_exh ib
_Opf er
_haupt sächlich
ch tz
_w ünsch
_s inn
_b an
it iven
_g ilt
_p et
_l äch
_M aus
ol ogen
all ,
_K ä
_L ife
_H ollywood
_er öff
ver ty
_V ision
_le ider
_2 6
iz ed,
ug ier
_mach ines
_gl am
_mus eum
_bra ch
_other w
_ro of
_comp ared
wer te
_einfach er
_bu ll
_lo ck
_po verty
_bef inden
_versch w
_app e
_stell en,
_Americ a.
_De b
amp ag
_At om
_lern te
_pict ure.
_att ach
_Produ kte
_Kont in
_entire ly
_intell ect
_repr äsent
_Sc ience
_relig ious
-l ike
_ho hen
_verg essen
_refle ct
_aufre gend
_Außer dem
_Kreativ ität
c ol
A R
4 .
_w and
te chnolog
al ing
_L og
_se v
_se as
ver ständ
aus enden
ön lichkeit
_com pl
_Sch ne
ink en
iz es
_Kind er.
_new spap
_wiss en.
_Fre m
äng st
_mag ic
weis e,
_voll kommen
_irgendw ann
_sicher lich
-d imensional
_beein druck
_inde pend
_Vir us
min ist
_Yeah .
_scien ce,
_Entwicklungs länd
_gearbeit et
_nar rat
gän glich
eles c
_läuf t
_telev ision
_Micro so
_gent le
3 ,
_t anz
_d rag
_s icht
nd en
is ier
_p un
_M ess
_re ve
_K eine
_V alle
_O ff
_sp ring
_Ver sch
rie ben.
ieren ?
erst and
ale ,
ren z
_gab .
_Br enn
_op in
führ er
itu de
akt iv
_nutz en.
_Dollar .
_hear ing
_Met ap
_gehör t,
_mar ri
_ant i
_Gegen teil
_robot s
_kenn e
_perform ance
_natür liche
_immedi ately
_Profess or
_Quad rat
_Stan ford
2 0
I ch
s inn
y cl
' t,
er t,
ie llen
_c ity,
te id
_y ellow
_D inosaur
_we ak
ot ,
_F ant
_auf zub
_li v
_O pt
_We iß
if en
_gen e
_tim es.
_every day
_Gesch ä
_Fl or
erm aß
_design ,
_Im pf
_kl ass
_sl ide
_commun ity.
_gegen seit
_norm alen
_Okay ?
ismus .
ipp e
_dah in
_clos er
_Elekt r
_vol unte
_colleag ues
_buchstäb lich
p her
s ver
s qu
- th
f ten
_t our
_t ree
_d ou
_d imens
an ch
_b and
_g un
_A ss
al er
_z og
ra ct
icht en.
_mit ten
_sch aut
ist en,
aus ch
_pro totyp
_sp l
_ex ch
art en.
iz ien
_act ive
_real ity.
geb ie
_dr iver
_bring s
_hal b
_heraus .
_belie ved
_Chin a.
_De utsch
_führ en.
_sah ,
-s c
_spiel t
_differen ces
_techn iqu
_Kor allen
_diseas e,
mö gen
_pres ident
_tw ice
_moder nen
_Verl ust
_Sold aten
hil fe
_Thom as
w es
k raft
v in
on s,
_o ber
_e chten
_p ump
al t,
_be teil
us ed
ro l
_B ob
am s
ol ph
_re produ
_ver f
_N ein.
_V ö
_C ode
ad .
pp ing
ah e
_pl us
_gro wn
_pr ä
_weit er,
_Ges etze
_open ed
_Untern ehmer
gestell t,
_Jahrh under
_univer se.
_entwickel ten
_Werk zeuge
_Kap it
_lau tet
_clim b
_erz äh
stad t
_Gefü hle
_dorth in
u el
g as
k ing
k am
- se
in er
_d iss
_m ine
_S ar
le id
_p urs
_to x
_D id
_we ar
se its
_ver steck
im ents
_se ien
uch en
_do ing,
_nach .
_mus ic,
_sc ulpt
_call s
_res ol
_cont r
_Tag .
_person .
_Bild ,
_kl ingt
arbeit en
_beginn en,
_fühl t
setz en,
_fall en
_billion s
_U. K
_Em ot
_figure d
üs se
_God ,
fra ge
_hold ing
_Rück en
_fu hr
_fa ith
_wes entlich
_temper ature
_Öffentlich keit
e per
g ab
p hen
ö d
P A
_h id
it ness
_e arn
_S yn
_A tem
_of .
_l aptop
_W andel
_T ief
et h
_M ass
ra chen
hr ough
_N orden
_J ugend
ad s
pp er
_not ion
ang en.
_Ver y
_Ver hält
_dar f
ard s
ous ly
_Sp an
_Ein s
_wieder um
_em pt
ek te
_Amer ik
_Ihr es
_6 5
_gab ,
_Pr es
_hör t
_phot o
_Kle id
_mechan ism
_emp ower
_öffent liche
_necess arily
_coun ter
_disapp ear
_Bot schaft
_yeah ,
_whe el
_Fäll en
_Amaz on
l as
l er.
b est
y ram
_t er
_s em
is ierten
_p il
ir ne
_W ettbewer
_T ur
_D abe
_M ac
_E ach
_U g
_re form
_F abr
end lich
_V en
_he il
_In t
_um ge
men te
_Er leb
ien s
_Ver kehr
_don e,
ble men
_geh ab
_durch führ
glich e
_part ner
_3 6
_star s
_wel chen
_car ,
_exper t
_wom en.
_Her zen
_help s
_letzten dlich
_love ,
_erzähl t
_famil y.
_sk y
ett le
_cor ner
_eas ier
_Met hod
_Antw orten
_hoff entlich
_Ir gend
_Far ben
_beobach ten
_medic ine
_Tatsach e
_Risik o
_Einz el
_herausfind en,
_Op en
_Francisc o
_Erkennt nis
_Dabe i
h att
g aben
_b au
_S or
_c ity.
ur ,
_D unk
_an gew
ach en.
_re por
_L aw
_er leben
_er halten,
uch ten
_for ces
_man .
_C al
_le bt
ik e,
_ch a
_tr uck
_da gegen
_up s
_us w.
_which ,
_look ,
_per cept
_Sp ielen
ähr t
ähr ung
_bes ag
_gew isse
ible .
_10 .000
_wen igen
_Arbeit .
pro blem
_important ly,
_Hand y
illi ant
_"S ch
_cor al
_Min ute
_Design er
_effect s
_Moment ,
_teil en.
_level ,
_langu age,
zeich net
_canc er.
_wunder bare
_lead s
enschaf t,
_dein en
_Mil itär
_okay .
ester day
_surpr ising
_morn ing,
_Bab ys
_hor iz
_gestell t
_Vertra uen
_Verantwort ung
_YouT ube
_Plast ik
_hus band
_Eind ruck
_Schimp ans
w ick
d i
c er
t op
g er,
" ]
_t al
_b ag
_b ilden
_f at
_f ine
_A ch
_l oss
_k ap
_M ad
_E he
_zu gänglich
_re plic
_P fer
_P fle
_L ied
_se ed
_V is
ul t.
os ing
_hat e
iel ten
_We ge
_da ß
_Jahr ,
_per man
pr om
_other s.
_Zeit en
ph one
_Ding en,
_werd e,
_po vert
_pass ed
_20 th
_happen ing.
_Jahre .
_big ,
_eff izient
_erst er
führ ung
_acc eler
_Frage .
_enough .
esent lichen
setz en.
_Earth ,
_Nicht s
_priv ile
_möch te.
_solution s
_ho he
_Jahrhundert s
_Job s
_treff en.
_kur ze
_attra ct
_manip ul
_bud get
_Hig gs
chtz eit
i ation
h ause
m itt
k ul
er in
_t aten
_t ail
_t ausend
_a id
or ien
_f ab
ar ia
om e.
hr t
_F rench
_st up
_N ation
der .
_man age
_uns icht
_sp ann
_aus geb
_my th
_mach ine.
_pr oud
_cl ick
_Man hatt
_"W enn
_interest ing.
_poss ibility
_light s
_Wor ten
_int u
_month s,
_leg s
_Ob wohl
-s h
_bro ken
_Wahr nehm
_suc ces
_Gesell schaften
_cool .
_Kom bin
_Aufg aben
_cle ver
_Chicag o
_Verfüg ung
_genutz t
_Rep ubl
_grandm other
_Fün f
r t
m öglichkeit
_d ort,
at ing,
_h underte
is ieren,
us hing
ent y
_F ound
ag ramm
um in
and em
_r u
_li br
ally .
ist isch
_Z immer
_um zu
_ent schieden
are t
lie ben
_ste lle
way .
_19 5
_star b
_wieder .
_machen ?
_wäre .
_Kon ferenz
_bere chn
_erw eit
_"S ie
_energ y.
_eig ent
_project ,
_wind ow
_minut es,
_societ y,
_Mot or
_Elekt ro
_Elekt ron
_hy per
_Nahr ungs
_Je ff
zw ischen
_Stre et
_Aktiv ität
_separ ate
_lös en.
_Konfl ikt
_Komplex ität
_"Okay ,
h et
a ver
N .
_w av
_s umm
_m ächtig
re m
it ely
_f ell
_c ore
_A ust
us ive
_D ro
_M und
_we chsel
ere .
_H ave
_r ound
_mit tel
_sh aring
_ch ain
_som it
_2 ,000
_Pro ject
_Ar z
_Un f
fe ktion
_En g
_andere ,
ian ,
_Aus wahl
_inc ome
_geb racht
_entwick eln.
_9 5
_Raum ,
_System ,
_compan y,
_project .
_Do es
_Warum ?
_fra ge
_pay ing
_änd ern,
_Aufg ab
_amerikan ische
_Tro tz
_princi ple
_Ord nung
_wis dom
_molec ule
_Aud ience
u hr
m utter
t on,
l aub
f lie
_d ance
at ing.
_W illi
_k it
_be ib
_E cke
_is land
_F el
_L ar
_er füll
_N o.
ag ram
_C r
_In n
art ment
_tr ip
iz iert
_every thing.
_Ein richt
_any thing.
_He il
_day s.
_ind ustrie
ont roll
_Ind ia.
_Um ständ
_Im m
_schw er,
_wichtig ste
_bo ys
_Br as
_expl od
_care er
_frag ten
_benutz en.
ipp ed
setz ung
_Gemein de
_cult ure,
_gehör t.
_const ruction
_centur y.
_pract ice
_21 .
_Projek te
_Ihn en.
_emp ath
kn own
_multi ple
_intelligen ce
_Objek te
_Qual ität
_foss il
_Polize i
d ach
t ät
- O
x .
_d ying
_w ahre
_c am
_c od
al tet
_D ach
ol er
_re gel
_F ak
_er leb
_den kt
_all es.
_for .
_R ätsel
_le isten
_pro st
_has n't
rie ben,
ne id
_lot .
_happen s.
_child ,
_brauch te
_Kon zep
_inv ited
_dach ten,
weis en,
_schön e
_invest ig
_spiel en,
_Sta at
_kenn en.
_animal s,
reif en
haf te
min ister
_current ly
_conv in
_meist ens
_Lauf e
_Act ually,
_Molekü l
_ermögl icht
_Somet imes
_earl ier
_associ ated
_Beding ungen
_vollständ ig
_Ox ford
i ous.
h aben
m ed
l eren
_a f
_a x
_d ivid
_s ide.
ie st
_h ind
_h ängt
_in iti
_S itz
is f
_to ward
_l unch
_D H:
_we aring
_wh om
ber ,
all el
im e,
_er led
end et
_ab ges
aus piel
_ex tern
_pe ak
_our selves.
_da .
_ent schl
_pr äsent
_bet re
gr enz
_nat ure,
_Aus bildung
_denn och
_long ,
_ele ph
_Wass er.
_second s
_dist ribution
_fol gen
_"N o,
_Kar ten
_stre ets
_const antly
_Fol ge
_Verbind ungen
_11 .
_univers e,
_bel ong
_Eig entlich
_institution s
_erzeug t
_hil ft
_manag ed
_rece ived
_Fing er
_Heim at
_zufäll ig
_sozus agen
u en,
ä um
er em
_m änn
as e,
_b rief
_f otograf
ar ies
_p al
_p ill
_ein iger
_k or
_z eit
us s,
_T alk
_an sehen,
_N ar
_O sten
_des ire
_Ver letz
_en em
_en gl
_problem s,
äd t
_Ph ot
_mal ,
_Br un
_100 ,000
_"D u
_funktion iert,
tes ten
_On ce
_defin ition
_Forsch er
_erh ält
_engine ering
_Verhalten s
_surv ive
_Hum an
_Invest ition
_Gewe be
_E-M ail
m on
g er.
x ,
as i
ar t,
_l ine.
ur teil
_M as
ic an
_B ett
sch ule
_ver teil
_" s
th eit
_me iste
_le ft,
_We 'll
_dem okrat
iss ion
_An ruf
_mus ic.
_ro ten
_comp are
_over .
ale d
_Aus maß
_Nach dem
pro f
zie hen,
_bess eren
_another .
_Kl asse
_"D er
_four th
führ t,
_Ob ama
_gesag t:
_simple .
_schön en
_equ ip
_Augen blick
_cas es
eng th
_cho ices
iot he
_cit ies,
_Material ien
_befind et
_Zeich en
_leav ing
_busines s.
_strug gle
_Gelegen heit
ibl iothe
_ve get
_Flor id
r in
r ies
d ed
h i
b ru
ä hm
_t ie
_d ue
at or,
_m essen
_h ur
_h ouse.
_I ll
_S ens
_S amm
_T ieren
_M ö
_M asse
_un less
_H ör
_Sie ?
_all eine
_r ück
_auf gew
ff en,
ist or
isch em
_C ount
_mo squ
_In nen
_ex tend
if orm
_sa c
_dar stell
_res ourc
_nat ure.
_gew ähl
_gra b
_let ter
_lif et
_irgend etwas
richt en
_Gehirn s
_cap able
_art ist
_co ast
_week ,
_fühl en,
_bro th
_Bes itz
wach stum
_interessan ter
_program s
_diseas es
_Nutz en
_Konfl ik
_schau te
_divers ity
_Pakist an
_Intelligen z
_Unterstütz ung
_t ick
_w ichtigen
ie ßen
re ,
_g ig
_f ördern
_I ,
_c ry
_W under
_T ausende
ic ted
ic ip
_B ur
sch ätz
_P ac
_H ins
_H aufen
_H otel
_st ood
_nicht s.
_R o
_Z un
_Le be
ight s
_Ge gend
_ihr ,
_Sp ekt
_wo bei
_gesch affen
_sur ge
_such en,
_einmal ,
_kom bin
führ t.
_Is land
_norm ale
_Frage :
_aut onom
_Em pf
auch en
_verd ien
_serv ices
_deep ly
_deal ing
_societ ies
_inde ed
_Fern sehen
_bewusst ,
_fort un
_perfe kt
_kur zen
_nied r
_Leist ung
_nachzudenk en,
_Ker l
_degre es
_geword en.
_tom orrow
_Colle ge
_Pres ident
u ern
N S
_S eh
_z ut
_D ad
_B eine
_re ef
_And ere
_N et
_N obel
_sie :
_R os
_R ock
ul en
ers hip
_St reit
_aus ?
_über w
_tr illion
_Al gorith
_Re chn
_Te en
illion en
_Or ig
_ph ilosoph
_ad vert
_dis play
_Vor teil
_ide as,
_"I f
äl t,
_Land schaft
_beh aup
_Beispiel .
_hät ten,
_Seit e,
_TED .
_"T hat
_eas ily
_val ues
_biolog y
legen de
_hoff e
_link en
abil ity.
_Gegen satz
_Exper imen
org ung
_anal og
_collect ive
_Char akter
wär t
_perfect ly
_surv iv
_draw ing
_Projek t,
_sustain able
_Ök onom
_fill ed
_Kommunik ation
_oxy gen
_funn y
_Mode lle
_metap hor
_nächst es
w ich
w ell
u .
m ar
v on
_d opp
_w ider
on es,
_m en,
_h ielt
_g ing,
_f ellow
_in cent
te uer
al ys
om e,
_be at
_D ok
_an gen
_K unden
_L aden
_se at
_r ie
_ex isten
_ch ann
_Sch reib
_ma int
_Er wart
_tr ue,
iz ität
if ying
_en able
_work ers
_per ce
_ste hen.
_happ ines
_no vel
ake .
_Kind heit
_soll en.
_star ke
ction s
ful .
rat ing
_str ang
_leben s
zeich en
_miss ion
_itself ,
_comput er.
fläch e
_relationship s
umen te
racht en.
_major ity
_describ ed
_fight ing
_suff er
_Bas is
_verh ind
-to -
i ous,
m ung
’ re
_d olph
at es,
_b lieb
_S orgen
ir t
ir urg
_k ing
_D .
ra ft.
_an gesch
_P o
_N an
ag ement
_V ari
_sch ien
ist ry
isch en,
_St ock
_um s
_ch ap
_Le ktion
_one 's
_get r
_2 8
_An griff
_over ,
_po ck
af en
ible ,
_brauch en.
_Me ilen
_design .
pro gramm
_br ill
_bo at
_art ific
_char ge
_remember ,
_prote in
_Why ?
_To ilet
_tradition ellen
_Every body
_Fol gendes
_produz iert
-t ime
_sam e.
_pow er,
_Chem ikal
_aussie ht.
_kost et
_Geheim nis
_Got t,
_agric ult
_oppos ite
_disk ut
r imin
a ven
ü ff
y :
’ t
_t on
_w uchs
it ut
_f äh
_c ow
ig er,
_wir st
_G ree
_P M:
ver brauch
_R ahmen
_C amp
_St art
_there ?
_from .
_An w
iz e.
_think .
_sag e,
_way s,
_Sp iegel
_mir r
_viel er
_mö cht
_unter scheid
_3 2
_ra ce
_ide al
_Land .
for men
_creat ivity
_play .
gram me
_br idge
_ander s.
_besch leun
_Kon text
_Ger äusch
_' 9
_Ged ächtnis
_öff n
_fac il
_weg .
_Fe bru
_Em p
_ident ify
_jour ne
-R e
_viol en
_Typ en
_grund s
_schreib en.
_Sat urn
_mom ents
_treff en,
_verstand en
_cris is
_launch ed
_Norm al
_busines s,
_thre e,
_Sä ug
_kürz lich
i as
t il
b as
_w ave
on ald
_m am
an ischen
_n ötig
_A ffen
_D aten,
_wir .
_G anze
_L uf
_R ede
_r uh
_St ift
_sh o
we ich
_know ?
_Pro totyp
_ent ertain
ond ere
_other s,
_tra ur
_talk s
_ac adem
_gra d
_ir on
_Bl ack
_genau er
_verl ieren
_Ent fern
_phot os
_änd ert
_increas ing
_hon est
_Eg ypt
_Vol k
_diejen igen,
_effekt iv
u um
i :
c ast
a :
ö ch
_d ot
_s org
_s oul
_h ypoth
_g ang
or ient
_S ud
_A kt
_ein deut
_W et
_be wirk
_z oom
_we ather
ic on
_E hr
_G and
_H ol
_al t.
_O l
_St immen
ute ,
_An sicht
_vor bei
_had n't
ak er
iert es
_ro w
imm t,
_sol ch
ful ,
ically .
_hal ten,
_own .
_design ing
zie hen.
_br illiant
_Kl ang
_Aut or
_wan t.
_cell s.
rib ut
ipp ing
_"N ein,
_elect rical
_equ ivalent
_aller dings
_Kont roll
_differen ce.
_ident ifiz
gestell t.
_spac es
_entdeck t
_Zwe ck
_grund legende
_App le
_persön liche
_Jed en
_sam ple
_Cent er
_eth n
_entscheid en,
_erschaff en,
_concern ed
_Erinn erung
_Bru der
_triff t
w ord
T alk
ö ss
re chn
it tel
or ing
_n ight.
_p eng
_A st
_k örper
et y
et en,
ra ucht
ve .
sch rift
_un gewöhn
_P et
_H em
_al one.
_N ov
_r ural
ff ekt
_sh op
_Sch ließ
_ma xim
_da ily
_An im
iz ation.
_bet rachten.
one y
ph äre
_bl ow
ient s
_soll .
_put s
_verb r
_human ity
_lang weil
_bas is
_versuch te,
_Intern ational
_spec if
_Kon sequen
_high est
_Schw es
_ass ign
_Kre uz
_Gew icht
_Str ess
_Par ad
_appro pr
_gam e.
_opportun ities
sk op
_entwickel t.
_tem por
_Bau ern
_Car ol
_enorm e
_Gründ e
_gelern t,
_est abl
_Mex ik
_ref uge
_Graf ik
_Cam br
_maint ain
7 .
m ann
m ord
g abe
ü ne
v is
an :
re chen
st ens
_g ä
_g all
_g old
_S y
_v ess
ir at
_be antw
_T op
_M erk
_E c
_F as
_un it
_L a
_sch auen,
_mo ves
_as p
_sp oke
_when ever
itt en,
_ag e,
ost er
ger ä
av ig
_dr ü
_zurück ge
_gu y,
_br ight
_Ü b
_spec ies.
_expl an
_7 00
gesch ichte
_cr ash
_fac e.
zuf ühr
_USA ,
_Par te
_train ed
_circ um
_Europ e,
_scale .
ungsk raft
_benef its
_Stern e
_vac c
kre bs
_sequen ce
_perspect ive
_natür lichen
fass ung
_Bud d
_Inse kten
ermaß en
i j
c il
a 's
g ern
p erson
ü ch
in es,
as ion
_l ies
_W ild
_be es
ur .
_y esterday
ra le
_B itte
_re plac
_K rit
_" n
_r ief
_auf s
_auf genommen
_from ,
_An ge
etz en,
if e,
_sa ved
_Gesch lecht
_spe zif
_wieder ,
_Fl ag
_bess er,
_exp ected
_kid s.
_Wel che
_TED Talk
_Ä g
kun ft
_keep ing
_nenn en,
_watch ed
_myself .
_kill ing
_Bere chn
_Mäd chen,
_innov ative
_sym pt
_los ing
_Universum s
_oper ating
_erf unden
_Herausforder ungen
_enc oun
_produz ieren
_caus ed
_verbess ern
_consider ed
_Tem p
_behand elt
ribute d
_Jo e
_Instr ument
_molecul es
_attem pt
u ing
c an
o ge
- hand
3 .
9 .
_t ear
_s ink
at ers
_f ängt
ing e
le gt
_c osm
_c ognitive
_T our
_M el
_B ush
_P fl
im e.
_Th ree
_st ring
_al ive
ag ed
_R ot
_im plic
_J u
_C or
ib el
iz ation,
_think s
_beg ins
_He alth
fr iend
_ad mit
_19 .
_10 ,
_dav or
_Ide e.
oth ers
_hät te.
_met ers
_TED ,
gew alt
_Schw ester
_acc ording
wend ung
_Ele f
_level .
_basically ,
_genug ,
_rad ical
_ident ity
_follow ed
_cra ck
_ster ben.
_bleib en.
_ansch auen,
_Klim a
_dollar s,
_Neur onen
_Publikum :
_Ira k
_hous e,
_bein hal
_Det ail
_ord inary
_Defin ition
_intellect ual
_hid den
_ ens
d o
z ut
k t.
k rank
- 1
- cent
f ar
en a
_in fin
_S eine
ro wn
_B al
_an zus
ag es,
and en
est s
est ic
_J emand
kt on
_über ras
_con tex
ap ital
_Pro blemen
_hab t
_ag gress
_gr ass
_happ en,
_comp ar
_Kind ,
_lang frist
_Pl att
_love .
zeit en
_book .
_aut om
_schle chter
_matter .
_kurz em
_Exper ten
_Every thing
_Them en
_var iety
_Bro t
_"J a,
_Erst ens
_Jahrz ehnt
zü glich
_relativ ely
_Fle isch
_medizin ische
_clin ical
_deut lich
_encou rag
_infrastruct ure
_Pers önlichkeit
_chimp anze
l ight
/ 1
_a stronom
st ruktur
_A ktion
ig sten
_W und
_W ould
ed ic
_you ."
_B od
_se i,
ay s
_j ähr
_Und ,
_So gar
_can .
_ex ec
art ige
iz op
_gen ü
ac e.
hal tig
_ges ellschaft
me ister
me chan
_gew issen
_long -term
_ele ments
_Über rasch
_nam es
_pict ure,
tre ten
_hope fully
_Bes te
_Erde .
_experien ced
_techn ical
_pick ed
_Komm ent
_tut ,
_Mil ch
_beweg en,
_Res p
_Fern seh
_Mag az
_est im
_wissenschaft lichen
_zun ächst
_Asp ekt
_organiz ations
_webs ite
_diagn ost
öt igen
_prakt isch
_angef angen
_cart oon
_landsc ap
_relev ant
_erzäh le
w ater
r ight
c ies
h te
o ßen
p ft
_w ond
_s etzt
as che
_f ern
_n an
_p ure
un tern
ve ,
_ver gangen
_L etz
_st ates
_for ced
_V iet
_li qu
ist ent
_war ten
_So ll
ad el
_sp ont
_We i
_Wir t
_con tem
_Be im
iz en
ast roph
ose x
_3 .
me hr
_nat ur
_wel chem
äl t.
_gra v
_question :
_Teil chen
_Land wirtschaft
_heute ,
_200 8
_spre che
_mensch licher
_schle chten
_teil en,
_Qu anten
_intern ationale
_interessan t,
_erkenn en.
_sat isf
_fragen :
_Führ ung
_Wohl stand
_Eff ekt
schließ lich
_behavi or.
_Koh le
_CE O
ampag ne
m ensch
b esch
_d inosaur
_d unkl
ie gen
as e.
_f isher
_n or
_v ent
_l äng
_l ater.
ber t
sch au
ge ber
_K oll
_so ph
_er mut
_er zeugen
ck en.
_V ern
_St uhl
be k
_out com
_Ver w
_Ver d
_gen ome
_cl oth
_comp onent
_no te
_kon stru
_res c
_hin ,
_sol cher
_bas iert
_hal be
_app ar
_design ers
gew icht
_polit ics
_erw arten
_health c
_head .
_12 0
_bro ther
_invest ment
_treat ed
_wrong ,
_interact ion
_setz te
_kauf en,
_zun ehm
_wirtschaft lichen
_capt ure
_decad es
_Sm ith
_Vier tel
_Wikiped ia
_Verhält nis
w hat
u ert
m arkt
ä ub
j ahr
er d
_d essen,
_w a
as c
_A ußen
al s,
_l ine,
_be ar
_T es
em ble
_B atter
il es
_F our
_F ische
_un us
_R ichtig
enn en,
_J es
_wie so
_wor über
_O k,
_In spir
_fr esh
_sh all
_aus gel
_Sch auspiel
ob acht
_bra chten
_ges p
_happ y.
fl ug
_Gr enz
_Vor aus
_em iss
_Um feld
_build ing,
_Fl ücht
_Geh irne
_kl in
_bess er.
_partic les
_dre ht
amer ikan
pe cted
_hör en.
_open ing
_pot ent
_Di agramm
enschaf t.
_yourself ,
_statt dessen
forsch ung
_persön lich
_schreib en,
_geze igt,
_Miss ion
_spir it
_farm ers
_bird s
_First ,
_necess ary
ho den
_influen ce
hyth m
_Inform ations
_Klimaw andel
_Institution en
_getö tet
z heim
J :
_t en
_t ons
_w ü
_w ake
re w
_the oret
_b are
_c rop
_T rag
_M ärk
ro c
_you n
_B F:
_G ü
_un ex
_H ill
_st ock
_er he
_V ölk
_le ft.
we ile
_The ir
ive au
_tr i
_An teil
_vor bereit
_think ing.
_Al zheim
_no .
_woll ten,
_soll ,
_talk ,
_denk t,
_end .
_system s,
_car .
fahr t
bl ing
_"D o
ograph y
_exist iert
_Groß mutter
_gar den
-A n
_ey es.
_suc ceed
_USA .
_Sta ats
_verd opp
_experien ces
_schein en
_minut es.
_animal s.
_digital en
_neg ot
_21 st
_conscious ness
_samm eln
_empf ind
_stärk er
_Pot ential
_anym ore.
_Häus er
_Satell iten
_otherw ise
_Vö gel
_peng u
h ar
k ind
p ond
G O
in es.
_s auber
an throp
_in it
_W ü
_D af
_D ire
ro chen
ic ke
_B ibliothe
's ,
_F ast
_P fe
_ab il
_J ungs
_sch we
_ne ut
ab ol
_he 'd
_sh ar
_über prü
_des ert
ink el
_Er de,
ac e,
_qu asi
_noch ,
_ste hen,
_werden ?
_wür d
_Welt raum
sp rach
_real ity,
rag en.
_dr ück
_dis p
_zwei ,
_verb l
_zurück kehr
_system s.
tra gen
weg s
_Kl in
_form ul
_bi om
_el se,
_gener ate
_friend s.
_mark et.
reit ung
_research ers
_Qu elle
_vorstell en.
_Ur s
_arg ue
_inde ed,
_Eig enschaft
_occ up
_Struktur en
_persön lichen
_cover ed
_Sym bol
_komplex e
_Süd afr
_Erk rank
_wirtschaft liche
_everywhere .
_answ ers
_Che f
_illeg al
_getro ffen
erne ath
_auth ent
_advant age
_Microso ft
_Audience :
izop hren
r ug
n issen
f ish
] .
in ation
at oren
as chen
_f urcht
_S MS
_B em
_it 'll
ach en,
_H en
_st aff
_for ,
_J un
_J ew
_C ould
_O st
_O ffen
_ge gangen
_um f
_us e,
_aber ,
ard ,
_geh ol
lle kt
_say .
_fe wer
är ke
_two .
rag en,
pf en
_Problem e,
rat or
_Ab schluss
_funktion ieren.
_Pr im
_phys ic
_int ent
_Spiel er
_ey es,
_ev ents
_besond ere
_ess ential
_unterschied lich
_ho tel
_respons ibility
lo s.
_ann oun
_bein ahe
_Ord n
-U n
_Sw ed
_molec ular
_Krä fte
_Angel es
_Gerä te
_west lichen
_verantwort lich
_coff ee
_Mart in
_introdu ce
u ed
c omp
l an
l tra
p fl
- ,
ö sch
in s,
_m ouse
_f iber
_S ir
_ein st
_W ellen
us s.
_D NS
_U -B
_ver ließ
um ents
ff en.
_sch ätz
_Z auber
_über n
_über leben
_de eper
_Re chte
ite te
_ges tern
_ges piel
_verb rachte
_pre fer
_zurück zu
_hand s.
fahr en.
reich en
_gef äll
_jemand ,
_el imin
_York .
_Stad t,
_öff nen
_stre am
_herum .
_neur osc
_struct ures
_law y
_comput er,
_Lin ien
_recent ly,
_micro sc
_communic ation
_Sek unde
_def ine
_bege ist
_entst ehen
_Maß stab
_conv ince
_compet ition
_Behand l
_diejen igen
_Californ ia
mäß ig
_employ e
_nut r
_Hom o
_iPh one
_independ ent
_convin ced
_artific ial
D P
p et
j emand
_d ish
_s in
_s um
_s au
_m el
an s,
_in put
ing ?
_S ince
_p ian
om pl
_und erneath
_be iz
_D utz
id ents
_P en
_P eter
_ab sch
_le ver
_can ,
_pro ve
_St ate
_sh ad
_We ile
_con ver
_hab it
are .
ip e
_wirklich e
_lie gt.
_rel ative
_Geld ,
_less on
_fol gende
_research ,
_U. N.
_sw imm
_schwier ig,
_relig ion
_lim ited
_Video :
_Politik er
_international en
_einge b
_kauf en.
_flo or
_led ig
_Präs ent
_imagin ation
_wähl en
_Mut ter,
_erschaff en.
_lös en,
_luck y
_Molekü le
_Zweit ens
_Ame isen
_Phän omen
_Mitt ag
_sen se.
_Herst ell
_Dinosaur ier
e b
in halb
as st.
_f irm
_in her
ig em
_W ein
_be e
_be it
ut en.
ot ic
_was ?
_Th erap
_er fahren
_N a
_dies el
ad d
_O ut
_O ther
_sh el
_über s
_über wind
ak te
_world w
pr int
_over w
ale .
_nie der
_build ing.
gt ;
_vielleicht ,
_trans ition
_brauch t,
_genau ,
_Br ücke
_min im
_organ ic
_8 00
lag en.
_Tr ick
_führ en,
ster oid
_co al
_job ,
iol ogen
_verd ient
_adv anced
_mother ,
_complex ity
_erklär en
_ern ähr
_network s
_bleib en,
_conc re
_requ ires
_Cent ral
_fa iled
_verbreit et
_spezie ll
_gefrag t,
miss ion
_zus ätz
_gradu ate
_Fil me
_landsc ape
_durchschnitt liche
_grundle gend
_Großbritann ien
_entsteh t
_satell ite
_conferen ce
_rough ly
urop ä
_forg ot
_unus ual
I P
s es
s un
_w üs
es ents
_b ul
_h ug
_c ategor
_k ick
_D ere
_B auch
_re ven
_ver größ
ct ic
_r ig
_le it
_aus b
_über trag
_Le g
_di pl
_tra ffic
_call ing
ath an
_bek amen
_Fl üss
_technolog ical
_exam pl
_ander en,
_mon itor
_spec ies,
_gef unden.
_Lebens er
_second ,
_Fr üh
_health ,
_Energ ie,
_far mer
_seit dem
_unglaub lich.
_DNA ,
_Par is
_aff ected
omet ers
_Di agn
üt tel
_repr esents
_möch ten,
_eg al,
_univers al
_Organis ationen
_increas ingly
_erstaun liche
_prim ary
_Punk t,
_birth day
_nied rig
_leav es
_offic ial
_Tal ib
_unabhäng ig
_schwar ze
_jün g
_koll ekt
_fash ion
_Pac ific
_soph istic
0 s.
r ass
h e.
t äglich
D :
o in
k o
_S kl
le vel
om ,
_l ic
et ten
_B om
_B rief
ow iss
_G as
_an ts
_P ingu
im es,
_H ir
_j oy
_" m
_r ing
ab b
au ern
_wor ried
_Sch äd
_them selves,
anz ös
_Ein en
_tra um
_part y
_new s.
_pass en
_pass word
bar er
_verb inden
_great ,
_wom an,
_import ance
_cour se.
_Thank s
_fin ished
_Geb ur
_another ,
_such en.
_stor ies,
_stor ies.
_Ex istenz
_Ste uer
_phys ikal
_plac es,
_art ists
_acc ompl
_schaff t
_ass ist
_Inter view
komm t,
_cult ure.
_je weil
_komple t
_Bed roh
_Glück ,
_verwend en.
_cra z
_Fol gen
_cut ting
_Zw ischen
_cit ies.
_Gleich e
_verbess ern.
_unf ortunately,
_mob il
_cop y
_Erd be
_unbe k
_Planet en.
_veröffent l
_auft auch
_Bost on
_concent r
_Ghan a
_U.K .
n el
n 't.
B I
_t ank
_d ur
st aben
it a
or ted
_S ow
_S um
_die .
al t.
_l aug
_re fer
_re gener
_F ok
_ver ab
_ver ring
_L age,
_H ung
_H ell
_nicht s,
_le ct
_ge e
_ge gründ
_aus gew
_An st
_who ,
_her stellen
_Fra gen,
_3 ,
_fl ight
oc al
_Ind ustr
_exper iments
_Arbeit en
enk en,
_interest ing,
_lik ed
_Ä hn
_week .
_Do ktor
_bro ke
_erinn ert
zuf ü
_verk aufen
_cas es,
_beautiful ,
_det a
_"L ook
_Bro ok
leg t,
_evolution ary
_ill ustr
_pract ical
onn en.
_Sicherheit s
_Vir gin
_surpr ised
_har der
_poll ution
_Aug ust
_carry ing
_Oper ation
_thes e,
_ultim ately
_Geburt stag
_dau ert
_Braz il
_Liter atur
_Schimpans en
_Wei hn
z iel
z ens
M A
& gt;
_t elesc
ch est
_a ußen
_b iz
_p ast,
_l on
_W urz
_W äld
_be zeichn
_D ra
_M ah
_M andel
_M ütter
_E chtzeit
ot .
ach s
sch er
_L etzt
_st y
um e,
_for mer
eit her
end en,
_auf w
_im men
ill ed
ly ing
_J im
_In te
_We is
_We chsel
_ch urch
_Le ider
_tr ug
_ent gegen
_mach te,
ak e,
_qu ote
_Gr as
_bes onder
_res ource
_ac qu
_sol id
_fl ower
_comm and
_system at
az z
_Br on
_8 5
_live .
_Ex pl
_Schw arz
_reg ard
_econom y.
_bre ad
_dra uf
_month s.
_fol ks
_Gra nd
_Ang st,
_großart igen
_interessan t.
bes ondere
_statt find
full y,
_ground .
_Händ en
_Tit an
_Test s
_kü mmer
_Nie der
_wert voll
_verurs acht
_bal ance
_Pass w
_Klimaw and
_comfort able
wahr scheinlich
_Perspekt ive
_ledig lich
_overw hel
r ans
d re
k a
ü l
f ert
_a rab
_w ächst
_s y
_m ur
_o h
_e ld
te lef
_to y
_v an
_l ung
_l ength
_W all
_T er
_D anach
_M omen
em in
_E .
_E pidem
il y,
_K y
_L achen
_se ctor
_st ir
_N GO
ck .
_man chen
os ion
_pro port
_In ner
_St ör
_aus ged
iz ed.
_some what
_ste ig
än z
inn ing
iert en,
_fe atur
_beg onnen
_cl ip
_cl ock
_3 3
_kon front
ungs ver
_ph ilosop
_19 1
other ap
_ir re
_question s,
_Ide en,
rä fte
_creat ures
_Im p
_word en.
ific ation
_Gehirn .
_Seit e.
_dafür .
_second .
ins on
_compan y.
_beste hen
_government ,
_hour s,
_fac ing
_Bes uch
_dachte :
_ess en.
_fing en
_collect ion
_Trans par
_mathemat ical
_requ ired
_emer ging
_Sym pt
_Best and
_sell ing
_wusst en,
_effic ien
_answ er.
stre am
_phenomen on
_Niger ia
_Mater ie
_beis piel
_Erleb nis
u en.
r ich
n etz
a at
g ment
o -
b s,
ä den
_t rop
_d ün
_w ra
_b ubble
_h urt
or al
_I .
_l esen.
_W ieso
_T ie
_M ult
ra in
_zu f
_G DP
_re view
_K enn
_L .
_R oh
_J ud
_C D
_C op
_C art
_le hr
_O hr
_We ise.
_ch ose
ang ing
ap s,
_also .
_our selves,
ug ht
ard o
_Te le
hal f
_You 'll
_every thing,
pr ä
_ro ot
_any thing,
fe cted
_Leben s.
_immer .
_gew ann
_du ,
_human s,
_pol ar
_weiter er
_ans ie
_cre ation
_Geld .
_"S t
_Freund e,
_fühl en.
_keep s
_ret ten.
_Tod ay
_Fot ograf
_hö re
_Größ en
_falsch .
_consum er
_pull ed
_schick en
_Bel ohn
_Any way,
_princi ples
_ine vit
_Mor al
_verme id
_unge he
_digit ale
_Statt dessen
_compl ain
_empt y
_Willi am
_circum st
d es
m ack
E T
k eln
ch .
es is
on es.
_m others
re chte
it arian
_p hr
_W om
_W eit
_W itz
_D ep
ere cht
ra nd
_G ore
_G ehen
_an wend
ol a
all ed
_L ou
_se ct
_se i.
_st orm
_al ive.
ag t
ag ina
_j unger
op ard
_r out
enn en.
_C oll
_he ir
ass e,
_or ,
_könn t
_pl atz
if th
_Al ph
_Un gleich
ob by
ak ed
_hier her
_qu e
_ste cken
_mir ac
_Ch anc
_Gr ün
imm t.
_ad vent
_gew innen
_selbst verständ
_Um w
_bit s
zent rum
_Nach halt
ler weile
_br ut
_plac es.
app en
_York er
_Möglichkeit en,
_Da zu
_hoch .
_simple ,
_Untern ehmen,
_Sta aten,
_control .
_view ,
_quick ly.
_Netz werke
_ähn liche
_circ uit
_micro bes
bring en.
_Dam als
bre chen
_deg ree
_suff ering
_verkauf t
_überzeug t,
_intro duced
_Kong ress
_tiss ue
_"It 's
_onl ine,
_exch ange
_stup id
_Kombin ation
z ing
z elle
n ehmer
k an
p art
; br
& lt
_b rit
_b ath
_h em
ing en,
_c yber
_p ast.
_W aff
_be ll
ro k
ol es
ge hör
_K B:
_ver ste
im et
aus chen
ul ous
ad en,
ant om
_ch ip
_Sch icks
men ted
_di ver
ak en
_Te uf
_Sp ann
_said .
_sm ok
_ask ,
_beh andel
_All tag
_Über zeug
_reas on,
_norm ally
wir t
_cur ious
_gemein same
_verwend et,
_gam e,
_Can ad
_Spra chen
onn en,
_Mot iv
_Per haps
_ed ge
_gefähr lich
_Japan ese
_Gren ze
_spezie llen
einand er.
_Entdeck ung
_trä gt
_Pf und
_encou rage
_weap ons
_äuß erst
&lt ;br
_ ere
t a
a id
g ie
- de
- the
_d iction
_d ort.
_w et
_s ilen
_b ic
_h ieß
ou st
_n avig
is s,
_c up
_to ler
_ein zu
al te
_l änd
ra che
_B eit
_B und
_an atom
_K reat
_den s
_im ple
_C ra
_C yber
_he im
_1 000
_für s
_ge ist
_um her
_über sch
od es
ang s
_con vent
_ar t.
_ar men
ild et
_Un fall
_were ,
_bl auen
_3 ,000
av ing
_dr iven
_lie gt,
_su it
_best ät
_lang er
_200 5
_weiß e
rach ten
_br id
_help .
ogra pher
_Sach en,
_Br ü
_inst ruction
_four ,
_disc ipl
ikan er
_hard .
_mod el.
_schnell .
_publ ish
_leg it
_Ele ment
_Ele mente
_unglaub lichen
_air plan
_Dar um
_matter s
_possible ,
_richtig ?
_intern al
bed ing
_Beweg ungen
_Zwe if
_ged acht
_gemeinsam en
_Männ er,
_faszin ier
_benötig t
_Schn itt
_Priv at
_fil ter
_hyd rogen
_adop t
_Diskuss ion
_Zusch auer
_vorhand en
_Metap her
_Hins icht
_ &amp;
_ &lt;br
w ald
u he
d esign
e id
c ur
m as
E C
- of
ö pfe
_t ats
_a par
_w ide
_w itness
_s orr
at es.
_m en.
as es
_f ishing
_in g
le gen.
ig ung,
_k omp
_be her
et s.
_M ary
em b
_we in
ra ,
sch rif
_re icht
_P ower
im b
_H or
_H eld
ver ,
ess ion
_J ose
_Z er
_St ufe
_ge omet
_ge führt
ru h
_wo her
_different ,
_su ic
_andere .
_em b
_fact ory
_lang .
_hal te
ock en
_brauch e
_Zu cker
_darüber .
_par allel
_verl oren.
_eing el
_Freund in
_Dollar ,
_Ged icht
_hoch ,
_scient ist
_fal schen
_rob ust
_contin ent
_defin itely
_erl auben
_Kle in
_reach ed
_erstaun lich
_Kü hl
_Lond on,
_aw ful
_depend s
_müs ste
_wes halb
_Ben utz
_medizin ischen
_wär en,
_deb ate
_veröffent licht
spre chen
beweg ung
_heav y
_Arg ument
_entreprene urs
_well- be
_algorith m
_Experimen te
_Daf ür
c raft
h old
er er
_t ub
_d edic
ar t.
_in nen
_n annte
_c redit
_l it
_W esentlichen
ein halb
_an p
_re par
_un glück
_Th en,
_H on
_er for
_R uf
_V oll
_war :
_C ons
_So bald
_O kt
os is
_sp ät
_We ib
_ch ron
_des wegen
_Sch atten
qu e
_get an.
_her um,
ät ter
_bet ro
_ra p
_ad j
_Se ele
_gew onnen
_bek ämpf
_gu y.
_produ cing
_ihn en.
_All gemein
_Unter richt
_plan ets
unk en
_Des wegen
_dat ab
_organ ized
_sub t
_beginn en.
_mark ets
_women 's
_Sh ang
_Gener ationen
_colle cted
_arm s
_engine ers
_add ed
_tut .
_Kat astrop
rü st
_Rad io
_jen er
_Planet en,
_lin ear
zun ehmen,
_combin ation
_Sign al
_morgen s
masch ine
_ök olog
_plann ing
_Etw as
_Dunk el
_af tern
w ähl
r aten
z ipl
k t,
s per
- cl
L A
] ,
_t ack
_a th
_b om
_b ow
_b ind
_b ug
_b one
_g ender
_g one.
_p asst
ir ing
_W omen
_be m
ur a
_der ,
_G arten
_an x
_F a
_F ü
_ver arbeit
_P enn
_L ong
_L aut
_H at
_er a
_" w
_r itual
_V o
th ,
isch e,
_Z itat
_O hne
be völk
_tr ig
_Ar men
_vor ne
if est
ud es
_had ,
ac y.
_gro s
_ste ht.
_sc ar
_ges amm
_Zeit alter
_cl osed
_Ch a
_Gesch enk
ord nung
stell ungen
_lo op
_res erv
_real en
_dr ill
_pre gn
_use .
_schon .
_trans fer
_ele v
rä ge
_today 's
_plan e
io gen
_werde .
_form .
_Min ister
_Fall ,
_set ting
_Zukun ft.
_Gemein den
cy cl
_dest ruction
_201 0
_send ing
_Trans port
_Versuch ,
haf ten
_läs st.
_Neur owiss
_leb te
_forward .
_Ton nen
_engag ed
_achie v
_Risik en
_Chem ie
_sold iers
_betrachte t
_vide o.
_Gem ü
_abstra ct
_surve y
_schwar zen
_sogen annte
_Pfle ge
_Fak ten
_verbl üff
_ing red
o ted
ch ron
an en
_h ook
_o ught
_S ur
_c ast
el s.
_D aten.
_M äus
ra h
_B ack
_G ibt
ot a
_re feren
_F igur
_L eit
_H ard
_st ere
_N ic
_N obody
ann te,
_sch merz
_le gen
_sind ?
_what ,
_at tend
_aus l
_um .
_des per
_ar t,
_her rsch
_us ?
_ste ckt
ub b
_etwas .
_durch .
_ph arm
_hin auf
_Vor hers
.. ."
_5 ,000
_gew esen.
_Ind ien,
_Pl ay
_ger et
_ir r
_Bl au
_brauch ten
_Bild ungs
_Zu hause
_wan t,
_hät ten.
_Med ia
_How ard
_run s
führ en
_Schw ar
reib en.
ew ork
_cor tex
ograph ie
_sign s
_bad .
_"N un,
ret t
_biolog ische
hör en
_ant ibiot
-D ollar
_Cl int
_yourself .
_Organis men
res pond
_Archite kten
_bege gn
_Tw it
_verrück t
rom os
_gek auf
_moder ne
_lok alen
aly se
_Galax ien
_fram ework
_mention ed
_kil ometers
_mat ter,
_Bedürf nisse
_batter y
_afrikan ischen
_Wettbewer b
_Zun ächst
_Äg yp
_encoun ter
_genü gend
m an,
a a
l ass
g ely
b s.
f ather
_w ander
as ie
_h ide
_in fected
_S S:
_p ages
ent h
_D ig
_we iss
ind ung
sch iff
_so il
_j u
_all e.
_R ett
_do es.
ist er,
ad es
_Le on
_Be vor
_An statt
_vor hers
_gen annt.
_sehr .
ru p
_te uer
_Gesch ichten,
_first .
_dr y
_hin .
_viele ,
bar rass
_lie ßen
_verb ringen
ri ption
_exper ts
ock t
_Ab fall
_Ab sicht
sam m
_Grund lage
_Ph ilosoph
_small ,
_fre quen
_besser es
_Spiel zeug
_dist ance
_Sh ow
_Buch staben
_ret ten
_air .
_fac e,
_amaz ing.
_DNA .
_defin ed
_Bet racht
spr ung
ahn sinn
_quick ly,
_ess en,
_eg g
_Bei j
_Bro wn
_incl ude
_stay ed
_thank s
_democ ratic
_attent ion.
_aw aren
_prom ise
_psycholog ical
_manag ement
_iP od
_hon or
_lay er
_ult imate
_behand eln
_Somet hing
_occur red
_rep air
sta at
_Men gen
_Instead ,
_invis ible
_fäh ig
_grunds ätzlich
_ x
r ang
z ed
ö m
6 .
_a im
_d ring
on ic
as st,
_b auten
_I ’
le gen,
is l
_W inter
_be züglich
_M ent
_B an
_B alk
_B ase
_wh y,
_an gel
_an hand
_an onym
am men
am a,
sch ränk
_U p
_so viel
_L iber
_L ager
_And ers
_st ret
_st ädt
_st aat
_N umber
_N ationen
ag ing
_j ail
op ter
gen ommen.
_Z ahn
os n
_pro gr
_In halt
qu er
_kn ock
_Be ge
_mach ine,
_nach ged
_nach haltig
ob b
ör m
_qu arter
_ges te
_ro te
_wo für
rit t,
_bit ,
_ihn ,
_Im mer
over n
_chang ed.
_book s.
_health .
_dra uß
_head s
_co ordin
weis e.
_exist ing
_„ D
_stat istic
ator s,
_mar ried
bo x
abil ity,
_großart ig
_schein bar
_oce an,
_oce an.
_erklär t
_entwickel te
_amount s
_Fahr zeug
_scale ,
_increas ed
jähr igen
_Comput er.
_erlaub t,
_perfe kte
_civil ization
_Frei will
_fur th
_veröff entlich
_elekt ron
_Geist es
_popul ation.
_threat en
_sitz t
_burn ing
_vehic le
_thes e.
_teen ag
_dunk le
_abhäng ig
_prep ared
_Kaliforn ien
_Pa ar
_Hait i
_glam our
_mosqu it
_diesel ben
e ben
h room
g estion
j ected
1 00
in s.
_d ots
st e.
it ing
_S up
is iert.
ir k
_be ige
ut her
_T ab
ro g
_E p
_it ’s
_an gr
_an get
ol it
_re place
_ver he
_N ah
um ble
_R iver
_me at
_1 .000
_In iti
_St ill
_ex tens
_aus drück
_tr end
_Be weise
_Ar t.
ain .
_di am
_qu iet
_ste ht,
_mehr eren
_where ,
_wirklich .
_unter en
_woll ten.
_dr ives
_sol ange
_cont ract
_em barrass
_happen s,
_end s
_rem o
_arbeit eten
_200 7
_still ,
_Beispiel :
_gef angen
_möglich .
_fre ien
_bedeute t.
_Verb rauch
_Ger äus
_prote cted
_verk n
_dev ices
_schein t,
_emot ions
_entdeck en
-E r
_beobach ten,
_Vir en
_eith er.
_bew ahr
_Afghanist an,
_Nutz ung
_reich en
_Gut ,
_dro pped
_breat h
_bie ten
bod y,
_Kons ument
_schütz en.
_fascin ating
_Körp ers
_Komp on
_forth .
_Phän om
_organism s
_pound s
_ök onom
_dür fen
_musc le
_Mitarbeit er
_gegenseit ig
_Elektr izität
_Fabr ik
_Platt form
_ :
i able
D A
p ark
ü ge
f ältig
_t at,
_a ck
an ter
st at
_e uropä
_f urn
ar io
_S end
_c ure
_c ord
ig u
_k op
ur er
_M ike
_B ay
ot ing
_re lease
_ver fü
_H indern
_st ation
um ines
_St ärke
_um geben
art igen
_de ploy
_them ?
_her gestellt
_Ver wand
_sa v
_nach halt
_Sp ace
_gr an
_no ise
_bu ying
_hin ten
_fun .
_car s,
_rel ate
-S ystem
_met al
_fre m
_Q ue
_polit icians
_mensch liches
duc ing
_cor rupt
_cor respond
_schl au
gesch windigkeit
_Mann :
_' 8
_allow ing
_fol gt
_ser ve
zieh ung
_mar ine
_sw im
_const ant
_prov iding
_Spe zial
_circ le
opp ing
_univers ity
_Fahr rad
_nachdenk en
_fail ure
_hop ing
uell er
_student s,
_Gut es
_hil f
_beschäft igt
_react ion
_überzeug en,
_shap es
_Washing ton,
_nerv ous
_behavi or,
_Bud get
_entstand en
_Bus iness
_grün en
_wunderv oll
_blau e
_uner w
_Trä ume
_surround ed
_releas ed
_Wirk ung
_Valle y
_perman ent
_Säug et
_unex pected
z ell
g te
k le
s a
s ucht
f rei
x per
_t all
at o
on ed
an s.
_u pper
or gt
ich e
_p ink
_p ip
_die s,
_A B:
_k reativ
_T ät
et s,
em en
_E ier
_E hem
_F utter
_so :
_on es.
_L ag
_L ungen
_al one,
ag h
end e,
_R esearch
_R B:
_V ent
_C ity,
_me ?
_le ichter
_wor auf
_sp ok
we hr
_aus prob
_The ater
qu ar
_Be obacht
_An geb
_An gestell
_us er
_qu ad
än en
_mus ical
pr uch
_any way,
_beg renz
_cl ub
_Welt krieg
_real .
_po ol
_Leute .
ges amt
oc a
_geb rauch
_bit .
_ele ction
_Ab out
_feel ings
_lif esty
_imag ine,
_irgend jemand
io x
_mon key
_number s.
_Gehirn ,
_lar gely
_Ä nder
_benutz t,
_Famil ie,
_col ors
_Gesell schaft,
_discover y
_pat ent
_Schule ,
zust ellen
_Di pl
enz ial
_Spe zie
_Google ,
_ster ben,
_wall s
_hol es
_slow ly
_consum ption
spro zess
_Red wood
_Mikro ben
_offen en
_Det ro
_lok ale
_Mehr heit
_adult s
_Afrik a,
_Jahrzehn te
_Sil icon
_artic le
_Hilf s
_magaz ine
_Untersuch ung
_entspr icht
_liqu id
_zunehm end
d iot
i xt
p reis
b rech
ü f
st ar
_e w
_u ltra
_in ten
_p flanz
_p ushing
_l esen,
_D amen
_der selben
_wh y.
il de
_G i
_G olden
_an gem
_un known
op ath
_auf gere
_sch ock
_St ahl
_aus sehen.
_Er sch
_ar me
_An stieg
_her zustellen.
if e.
to cin
_ste igt
_Ein heit
_fe et.
_gr at
_where ver
_viel ,
_wo von
_soll en,
_dis aster
_Vor teile
gl ing
igkeit s
_Auf bau
_child .
_Wiss ens
_wahr .
_care .
_resp ekt
_typ ically
_week s,
_pos itiv
_elect ro
imens ionen
_Fol ie
fra gen
_pap er,
_bereit ,
_dein er
_moral ische
_Gott es
_musst e,
_gebaut .
_spir itual
_unc ertain
qual ität
_Mobil telef
_ren ew
_Verk auf
_Opt im
_specif ically
_Transpar enz
_tats äch
c ell
- pro
_t ested
_g olden
_n either
_S us
_p itch
al ien
_W alk
_D V
_M ountain
_B ol
_B illionen
_G ute
_G ip
_G ates
_G erecht
_an bie
_U s
_K urs
ell ing
_are a.
_J on
_ne x
_C ome
gen ommen,
ad en.
_Z erstör
kt en,
os es
_pro to
ön t
_sp rachen
_fr ank
_ch icken
_Er sten
_Be ute
_work s,
_noch .
än e
_können ?
_viel .
_Wh ite
_ob es
_Zeit raum
_res ult,
_ad minist
_20 ,
_5 5
_ins ur
_let ters
_trans c
_sec re
_entw orfen
_Bild .
_play ,
_verw andel
_besch ütz
_exp on
_live ,
_9 /1
_cell .
_erw achsen
_mod el,
_less ons
_coll aps
_head ,
_gre enh
_Ged anke
_col um
_fal se
_sens itive
_spiel te
_dev ice.
_Fe yn
_schwier ige
_Gegen wart
_Sü den
_Länd ern,
_record ed
_Part n
_dream s
_Eig ent
_Ant ibiot
_ground ,
_Oze ane
_Comput er,
_forward ,
_komplex en
_untersuch en
-V er
_Gesicht s
_Christ ian
_Aug en.
_automat isch
_crow d
_Individ uen
kele tt
_Ahn ung
_Jahrzehn ten
_transpar en
grupp e
_sogen annten
_Fein d
_appreci ate
_Kaff ee
_Kontin ent
_Entwicklungsländ ern
_techniqu es
_Lebe wesen
_Spekt rum
_Mexik o
_ “
r ier
z ünd
t ausende
l assen.
g ent
I S
b ilder
y "
ch ild
_a gen
_a ge.
as p
as ten
st uhl
ich en
_f ok
_S t.
_c ave
te te,
_be antwort
_T eles
_M är
ve led
id imension
_F üß
_K art
_K ug
_K ost
_ver lie
_un mittel
_H ur
_H underte
_N erv
_j a.
_do zen
_C ont
_aus einander
iv es,
ah ar
_Sch ätz
ap se
_Be fore
if er
our ce,
_going ,
ose .
_groß .
_pass ieren.
_Se e,
_Vor fahren
_em bed
_happen ed,
_letz ter
_Fl ügel
_rem ove
schein end
_Ph ase
ative ,
_Ste phen
_cr iminal
reit en
_On e,
_On ly
_government .
_rest aurant
_air ,
_nothing .
_Musik ,
_Bes onder
_bed ro
_mot ion
_oce ans
_gam es.
_fish .
_Bereich e
_Bereich en
_oil .
_dein em
_weltweit en
_Tiere ,
_pres c
_veränder t,
_hop e.
_bege ister
_Kr ise
_Ton y
_proper ty
_sn ow
_Mc D
_kontroll ieren
_Sau di
_rid ic
_Priv ats
_hor se
_prec is
_kämpf en
_audien ce,
_entreprene ur
_Mos k
now led
_od d
_antwor tete
-and -
_Webs ite
_sinn voll
-sc ale
_lautet :
_"That 's
_Lebenser wart
_bic yc
_Bund es
w enden
u a
r ict
h h
n utz
n ütz
o on,
k ument
b t,
_s ources
_i tem
_m ächt
as tern
_h orm
_g ünst
is en,
te :
_v ote
_W ats
_T auch
_we ,
ic it
_F arm
_K abel
_ver z
_ver p
_ver an
_L ive
_L ED
_H unger
_er forder
_R io
_r ou
_r ates
ell y
_do kument
_li ft
ab ly,
_pro test
_com ment
_fr ied
_ex ists
_sh ut
_um ,
_ch romos
_Sch ach
ang ,
_di abet
_act ing
_act ion.
_Un ion
_dar unter
ac y,
_gr id
_Wh ile
_sc ene
_wo hn
chnolog ie
_bu il
_lo vel
_19 2
_19 th
_fl ies
_pre par
_10 .
_app lied
_Bl att
_Bl ock
_creat iv
_par t,
_Br ian
_Kon stru
_gef unden,
_number ,
itz er
richt ung
_inst inct
_met abol
_mean ?
_möglich e
_Schw ed
rupp en
_believe ,
_ass ume
_int im
weis en.
_bekomm e
_Stra nd
komm t.
_gar ant
_extra ct
_cas e.
_test ing
_Schule .
_cho ice.
_const ruct
_Länd er,
_Gründ en
_surpr ise
_ged acht,
_rock et
_arr ived
_breat hing
_Fortsch ritte
_Ern ährung
_aussie ht,
_Erfind ung
_sele ct
_erg ibt
_Sonn ensystem
_Lö w
_durchge führt
_grundle genden
_consequen ces
_Flie gen
_Tum or
_Lat in
_herausgef unden,
_spl it
_Deutsch land
_tox ic
_tal ent
_gig ant
_Chemikal ien
_Schließ lich
w est
u ern.
z ig
s st
- n
f unktion
B M
y g
O L
_t auch
_d inner
_w ound
ie v
re ten
_h ill
_S n
_S qu
_S erv
om os
ig ungs
_l es
ra it
_B oy
_an sehen
se her
id es,
_N ase
_N iveau
_are a,
ist en.
ist ers
ul in
_go d
_Z ehn
pp e
_ex cl
ik a.
og ram
_An n
_Ver lauf
ak s
_Re zept
_pr is
_pr ime
_3 7
_kon s
ungs los
_lot ,
_fl at
_Auf nahme
_4 2
_dec re
_produ c
_ben ötigen
_rec yc
-S h
enk en.
_tatsächlich ,
_par as
ließ en
mit glie
lag en,
_My th
_dre hen
_book s,
tes te
_dist inct
_eas y.
_stat us
_"M y
_genug .
_guy s,
_iss ue.
bo den
_großart ig.
_sow eit
_dah inter
reif en,
_erkenn t
_Krieg s
_allem ,
_ansch auen
_ill ness
_hol en
_Gründ e,
_behavior al
_erzeug en.
_betrachte t,
_bie tet
_geschaff t
_saf ety
_spezie lle
fre und
_Hü hn
_earth qu
_zahl en
lös ung
_Ahn ung,
_Kol on
_Ereign is
_Alex ander
_Wid erstand
_mort ality
_embra ce
_Manhatt an
_Wahrnehm ung
_Wet ter
_gä be
_Viet nam
_begeist ert
_mur der
_beispiel sweise
_Privats phäre
d ienst
i ally,
l aden
g reg
o ons
f älle
v as
en kt
er es
ie inhalb
or men
_S now
_A ,
_to w
ig aret
et ch
_D sch
_M ik
_M RI
_we igh
_zu zu
_un com
_er b
_er fahren,
_den selben
_im it
_St ücke
_aus ger
_now here
_sc ript
_ob st
_comp on
_ph ones
_talk .
_Man :
_19 3
_different ly
_verb unden.
_verb rauch
ges etzt
_ins ight
_ins besondere
_hand le
_einz us
_versuch ten
_exp onent
_zie hen.
_kid ,
ative .
_stand en
_sub s
_econom y,
_hard ,
_Inter essen
eder al
_pra y
_while ,
_ant icip
_weg ,
_Fe ed
_business es
_mess ages
_verd amm
_"Y es,
_micro b
_nachdenk en.
_Sym met
_Afghanist an.
zy kl
_unf ortun
_flu ores
organ is
_nar row
_Frank reich
_surger y
_Statist iken
_Wirtschafts wachstum
_ursprün glich
_batt le
_Klassen zimmer
_Erklär ung
_ske pt
_Erinner ungen
_charac ters
_marri age
möglichkeit en
_Bras ilien
_Dok ument
_eindeut ig
_Resp ekt
_sophistic ated
_biz ar
_Base ball
_fok uss
m achen
t ain
g ans
p en
s ide
- r
- Q
f ore,
C ,
_t ip
_t able.
_d ien
_u g
_g ay
_g ing.
_A v
_v ibr
el ine
_T ib
_D ynam
ol i
_re chte
_F ive
_so ft
_on es,
_L äch
_se es
_H ypoth
s, "
_er :
_N els
_R wand
_r ide
_J H:
_C .
_O k
_aus zus
_or ient
_or chest
_kn app
_Ar ist
_them e
_di agram
_geh alten
_ste igen
_ste he
_gr ate
_happ y,
_find e,
_over l
wer ten
_spe ich
ger ät
geb racht
_dr ess
_pre m
_4 ,
ichte t.
_car ried
_heraus f
_Bl ind
_long .
_trans formation
_Teil nehmer
_Me ister
_drei ,
_besch rieben
_gel esen
_100 .000
_mean s,
_fre e.
reib ung
_Raum .
app y
_abs orb
_mark et,
_Sh akes
_stat e.
_Met all
_wonder ing
_gehör en
_ev il
_ev iden
hör en,
_control ,
_hö here
_199 0
_pot entially
_Di abet
_program .
_Sc ott
_solution .
_fish ,
_jo ined
_obvious ly,
_mechan ical
_Kü ste
_travel ing
leit et
_meaning ful
_chemical s
_particip ate
_Det ails
_Gesundheits wesen
_perspect ive,
_Kons um
_vern ünft
_Rom an
_valu able
_Erwachsen en
_gewinn en.
_spect rum
_electron ic
_elektr ische
zog en,
_fle w
_Result at
_comb ine
izien z
_Emot ionen
_succes s.
_Found ation
_Normal erweise
_vergangen en
_swimm ing
u er.
z ur
l i
l s
l änder
k ular
b lichkeit
' "
_th en.
at ure.
_h un
_f ake
_n ein.
_A h,
al u
ig ungen
_W a
_W arn
_W agen
ra .
ve y
_an erk
ier er
_F BI
_K ab
_H ong
_N ähr
_nicht ."
_" c
_" b
ill a
est r
au be
ad ic
_wor an
_ge g
_The or
mer ,
_ar ts
_Ver teid
_Al t
_nach ts
_Re icht
ub a
_fe et,
pr im
_gr üne
_cl ient
_unter r
_lo s.
_lo ad
_off ered
_"W ell
_dr in
_19 00
_20 2
_fl og
_fl ood
_versch l
_percent age
_three -dimensional
_trans mit
_Unter halt
br an
_Kl av
_glaub t,
_kam en,
_Wass erstoff
_word s.
_Bec ause,
_schn ell,
_expl o
_care ,
fall en
_versteh e
_schl ug
_Ger icht
_Möglichkeit en.
_„ Ich
_hear t,
-A r
_Met hoden
_gest orben
_process es
_irgendw el
hör en.
_sit es
_dep th
gang en.
_wunder bar
_erklär en.
_oper ate
_Kultur en
_explain ed
_Sk ulpt
_inspir iert
_Jap an,
_198 0
_strong er
_klar .
_growth .
_läs st,
_Mo z
_hop e,
_Sol ar
_express ion
_Krankenh äus
_Bi om
_dramat ic
_dynam ic
_Nachbar n
_ernst haft
_merk würd
_nachzudenk en.
_kosten los
_Wür de
_parent s,
_gewiss er
_unl ike
_Wid ers
_ast on
_Abs ol
_corpor ate
_Kapit el
_Ug anda
_Trotz dem
_Teen ager
_Budd h
_ack nowled
w ickl
z en.
a "
S P
K ,
? “
in a,
_i con
at ure,
_m im
_m ikro
_b aut
_S ant
_S ong
_A pr
_A cc
ut ze
el s,
_T ime
_D ay
_D ial
_M oo
_G rie
_G irl
_an zusch
am ing
_re chn
_F ert
_F älle
_so -c
_was h
_se he,
_H am
_H unde
_" the
_R ay
_R hyth
_J osh
isch t
_ne ugier
_Z ä
_wor se,
ant s,
ah .
_or ange
_Sch alt
qu is
ick et
_Ver gn
_Ver stehen
_going .
itt en.
_geh eim
_per h
hal ts
_He y,
_bes org
_Or t.
way s,
_dam age
_dis g
aff ung
_Ind ones
_bas ierend
_einz uf
_Arbeit er
_play ers
_kl ing
reich e
_irgend eine
_Mal aria
_Hand .
_erzähl t,
yn th
_plac ed
_Weg .
_nutz t
_Ger uch
_spä ten
_set s
_Wer bung
_Groß v
_"N o
_Not hing
_fac ed
_Ang st.
_link ed
_"Y eah
_opportun ity.
_grand father
_fantast ische
wär mung
_flie gen.
_veränder te
_Innov ationen
_inte llekt
_Fin ally,
_measure d
_fragte :
_untersuch en,
_hil ft,
_geschie ht.
leist ung
_confl ic
_vide os
_entschied en,
_ermögl icht,
_Pot enzial
_erle bt
_surfac e,
_determ ine
_Zivil isation
_transpar ent
_Eth iop
_poet ry
_aufgeb aut
_issu es.
_exerc ise
_Bevölker ungs
_eigent liche
_Brook ly
u an
u es,
g rad
y 's
C A
in sel
_t ue
_d ump
_s ides
_th erm
nd rom
at sch
at ik
_m elt
_c ell,
_p ed
_v ital
_ein t
ed ing
_M amm
_wh ist
lich en,
_re fr
_K os
_L asst
ver sch
_" Z
_J une
_sch m
_C ity.
_he y,
_wor um
_pro ced
_St aub
_St äm
ik ing
_Le vel
_Sch wer
_con front
_2 :
ick en,
iz on
hen s
_kann te
pl ane
_ob en.
ph as
_einfach es
_Ne ues
_ph one,
anc es.
_20 50
_fl ip
_down load
_ins ide.
_versuch e,
_All er
_200 9
_weiß en
_imag es,
_zie ht
_gel öst
_kam .
reib en,
_reg ions
_System .
_land ,
_story tell
_heiß en
_Fall .
ständ e
ense its
iere ,
_sign als
_Stad t.
_month ,
_cur ios
_educ ational
_research .
_Sinn ,
ane ous
_Erfahr ung,
_erh ielt
_robot ic
_Dem oc
_"E r
_wunder baren
_"B e
_experiment .
ling e
sicht lich
_perform ing
_mathemat ics
_respons ibil
_Mark eting
_197 0
_musst e.
_house hold
_Führ er
_track ing
-h our
_vertra ut
_minute .
_vide o,
_suggest s
_Con nect
punk t,
_passion ate
_Erinn ern
_Tex as
_Anwend ung
_wire less
_magnet ic
nahm e,
_ober en
_besag t,
_horiz ont
_healthc are
_Jes us
_Fok us
_selbstverständ lich
_gros se
u ens
h ung
h of
g ers
o ben
ü g
s hip
en s.
_a er
_s ed
at i
as ing
_h arte
_u tter
or tex
_I ron
_p in
ig ung.
_be ?
un ruh
_M isch
_M ale
_M achen
em ,
ra w
_B ell
_B ern
_E :
_an ger
ber .
ach ,
lich e,
uf en,
_F ord
_un vor
_P az
_L ux
and en,
_mo on
_mo de
_Z ie
_hat ?
_Sch ild
mer zen
_just ice
ak ers
ans ion
ous e,
ical .
_need .
_tra ged
sp ann
_3 8
_Or ,
_zwe imal
_Se chs
_4 8
_geb racht.
_gesch ütz
_Bl umen
_let s
_beh ave
for est
_All es,
_understand .
-S piel
_mon ke
_Med iz
richt en,
_Hand el
_form ed
_op en,
_De c
esen ted
_Prozent ,
_gener ally
_gener ations
_führ t.
_erw arten,
_beginn t,
_beginn ing,
_fas t.
_cor rel
_moment an
_Famil ie.
_Entw urf
_wenig stens
_Spiel .
_top ,
_fol genden
_fol gendes
_effect ively
_rest aur
_teil weise
_process ing
_Patient en,
_passiert ?
_hoff en,
_prov ided
_Bilder ,
_comput ing
_meas uring
_Wort en,
_field .
_sug ar
_fundament ally
_tief er
_inspir ation
bring en,
_caus ing
_Regier ungs
_convers ations
_konzentr ieren
_fem in
_Aktiv itäten
_strateg y
_Hin blick
_höher en
_ext inct
_swe et
_herausfind en
_Port ug
_surfac e.
_drink ing
_Sonnen licht
_Rä ume
_Fund ament
_Haw ai
_Sing ap
_pun ish
ettle ib
_bau te
_mittel s
_Nov ember
_Bibliothe k
_laug hing
_Nels on
_so-c alled
_ 0,
w agen
d lichen
n et.
ö st.
O :
_t ired
_a ust
_d y
_d ign
_d umm
_w inter
re in
_b ond
st ät
_g olf
_f ulf
_in ject
_c and
_W ann
_z it
us ion.
_T in
et ische
_M ov
_M io.
_B or
_G ulf
ier ung,
_ver glichen
_un bel
ct u
_st ieg
_this ."
um ul
_j etzt.
ck en,
_R oy
_im per
_sch me
ib t,
_Z us
_O ct
_sp here
_In fektion
_um gehen
_ch art
_über tragen
_Sch m
_Sch aden
ang e,
_An re
_vor sichtig
_us ers
_Aber ,
_Re chen
_don 't.
_see k
_mus hroom
_ag end
_viel mehr
ile g
_3 1
_Was ,
_su ck
oc ol
_gra de
_heute .
_found ation
_school s,
_Wel ten
_Ent rop
_tre es,
_stand s
_mag ,
_dire ctor
_Schl acht
_frag t
_mov ies
_opp osed
_exist .
_exist ieren
_Buch ,
_Gemein schaften
_scient ists,
_Dar auf
_equ ally
_cond uct
_innov ation.
_view .
_kenn t
osph äre
_Every one
_sow as
_vo ices
_Eltern ,
_Lin col
_Kor ruption
_Kultur ,
_genet ischen
_auss er
_morn ing.
_crit ic
_aw es
_main ly
_Comput ers
_medic ine.
_übr ig
_fix ed
_Vorstell ung,
zun ehmen.
_erschein t
_Zuf all
_Stamm zellen
_jud ge
_ermöglich en,
_senten ce
_kreat iven
_manufact uring
_verfüg bar
_issu es,
_Frü her
sprech end
_Impf stoff
_hind urch
_möcht en.
_überras cht
_Inspir ation
_youn ger
_ausgew ähl
_zuf rieden
schrif ten
_greenh ouse
_uncom fort
w h
r id
l a
l ings
o oth
k or
b .
- off
B A
v iele
on en,
_b itten,
_h ers
_c av
_W i
ur en,
ion e
_M angel
_E igen
ach er
_K och
_K redit
_K ampagne
_se ch
_st ruck
_all täglich
_V ater,
ill ing
_sch auten
_war ten,
_Z it
_aus gesch
_We gen
art ig
_Sch öpf
_sein ."
_An pass
_vor n
_her stell
_us ual
olog ists
ard .
änd en
ip her
_viel es
_Zeit ung
wer den
_Gesch mack
_little ,
iß t
_ac cep
_ad ap
_bek annten
_pre tend
_Problem e.
_sm ile
_gu ar
_hand eln
_Geb rauch
_zusammen ge
_Aut om
_word ,
arbeit ung
_erw artet
_bre it
_Frau en.
_hard ware
_ihm ,
_Daten bank
_Pol iz
_far ,
_Information en,
_Stra hl
_reason s.
_fol gend
_hour s.
_effect .
_Dar über
_Licht ,
-B e
_invest ieren
_girl ,
_rad i
_connect ions
_Bo x
_outs ide,
_entdeck en,
_ries iges
_bott le
_genet ische
_profess or
_map s
_surv ival
_Park inson
_feed ing
_prim itive
_transform ed
-L e
_neigh b
_flo ating
produ ktion
_196 0
-St ud
_sold ier
zü g
_frei will
_müs sten
_hing e
_geschie ht,
_reag ieren
_gearbeit et.
_Sprach e,
_answ er,
bod y.
_Afrik a.
_Körp er,
_Interess ant
_dauer te
_Mexic o
_kulture lle
_presen ted
_tum or
_lat est
_Rem ember
_resol ution
_Method e,
_Unf ortunately,
_drü ben
_emiss ions
_Hen ry
_concre te
_Talib an
_overwhel m
_stret ch
_McD onald
l en
l ast
o en
p a
b age
v a
_s ett
_s üß
_th rown
an ische
_b on
st ör
_S W:
_A ff
ig ent
_be mer
_B ord
_an stelle
_un w
_L eiter
_st age,
_er .
ag on
ag ger
um e.
_R ichtige
_sp inal
_fr uit
_um zus
iss ionen
_An ze
_ent t
_her zustellen,
_mach te.
_di ox
_act s
ru cted
_world ?
_ste el
_ob l
_comp ound
mal ,
_Kind ern,
_fü ll
_Or te,
_hin zufü
_Ges ichter
_sol ved
_Aus stellung
_lang ,
_geb oren.
_gra y
_rec on
_kl ug
br ü
_verl ieren,
_jemand en,
arbeit en.
_Ent schuld
führ en.
_Über wach
_fre und
_phys ically
_phys iolog
_Dank e,
dern ,
_land .
_erk annte
_me. "
icher ung
_beste ht,
_ber ück
_Engl and,
_particular ,
hol z
_bro wn
ches ter
_computer s,
_opt ion
_chem istry
_struct ure.
osph or
_class ic
_pap er.
_field ,
stra ß
stra hl
_death .
_moral ischen
onn a
_Männ chen
_movement .
_verrück te
_bezahl t
_jen em
_Aug en,
_Vorstell ungen
_invent ion
_Hel den
_fro h,
_pleas ure
_popul ation,
_Asp ekte
_nahe zu
_wär en.
_Galax ie
weit e
_Prote in
_Fakt or
_Lö cher
_geword en,
_Statist ik
_stamm t
_Ext rem
_statist ics
_erne uer
_controll ed
_challeng ing
_Situ ationen
_exhib ition
_Deb atte
_attach ed
_fab ric
_Nahrungs mittel
_equip ment
_dopp elt
_existen ce
_bare ly
_microsc op
_jeweil s
_Momen te
_ansie ht,
_länd lichen
_Shakes pe
n y
o ir
k ins
k am,
b ,
" ?
- re
“ .
_a steroid
_m ig
_m amm
ou ver
_f ein
_n est
_S ag
le ucht
_c ub
_p our
_die t
_A kte
_ein iges
_k och
_be unruh
_T en
_T ell
_y ield
_B re
_G all
_an gle
id es.
_H ab
_N aja,
_sie ?
_ab und
_ab schließ
ill en
ill e,
_mit ,
_J ac
_J ane
ist ics
_C A
au c
_ge geben.
_sh if
_über t
_tr iv
_Pro to
_pl ot
_pl ug
_Ver g
_Al b
ör ter
lie f
_inter se
yst er
_where as
_sc ared
_tra veled
_He utzutage
_ra ising
_she ep
me id
_Vor schlag
ges etz
ri x
_Um gang
_bit ten
_produ ces
ade .
rä ume
_Gl aub
_ander es.
_Ü br
_New ton
_word en,
_Technolog ie.
_Stud io
_verschieden er
_begann en,
_group ,
ipp en
_ber u
_top .
_fall ing
_val ue.
erein stimm
_Dar stellung
_Natur ,
_ev alu
_fac es
_sens or
_biolog ischen
_Gesundheit ssystem
_insp ire
_Erfahr ung.
_beautiful .
_chem ische
_conf ident
bra cht
_ange p
_"L et
_record ing
_clos ely
_Rest aurant
_Rei hen
_verbess ert
_unterstütz en.
_industr y,
_Sicht weise
_Wachstum s
_gearbeit et,
_Ben j
_appear s
_behavi ors
_Entdeck ungen
_Hy per
_gross en
_irgendein em
zer o
_situ ations
_sus pect
_Cong ress
_mitt lerweile
_atmosph ere
_beeinfluss en
_Fläch e
_dom estic
_kümm ern
_Schwier igkeiten
_weib liche
_verwir r
_resourc es.
_Ange legen
_Herstell ung
ko hol
önt gen
_Feed back
_ ..."
h ib
m ot
n en,
n ot
o be
k et
k arte
- on
y ."
in st
_t we
ch air
_s ure,
_th ick
_h ip
st er,
or a
_in zwischen
_I BM
_S ix
is er
_c andid
_p andem
om es
_und erg
_D ör
_D aum
_M öglich
_E uch
_an st
_an throp
ier ungs
_K ond
_ver zweif
_un iqu
_P C
_H undert
_st ol
_al ien
um er
ck t.
_R aub
_im age.
der s
_sch ol
ern en
_sich er.
gen ce
_O ce
_fr anzös
ik a,
_um so
_ch ocol
_like ?
_Ver m
_Ver hand
_dar .
_hier arch
_qu alif
_Ein stellung
fl üss
_3 50
_bu ck
_bes itzen
_Ne ander
_she 'd
_su p
ian s,
_Ind em
att le
_dec l
_heraus stell
_pol io
teil en
_play er
_200 6
_Unter haltung
_wahr haft
_par t.
_verl ieren.
bl ock
_tre ten
_De cke
_bi ke
_Schw ein
_vis uelle
fin ed
amer ika
_five ,
_schl af
_schl uss
_Min uten,
_leben den
_Here ,
_leg isl
denk en
_air plane
_fac ial
_Ber icht
_hom es
_treat ing
-d ollar
_gam es,
-f oot
_film ,
_death ,
_step s
_okay ?
_poin ted
_Real ität.
_emer gency
_erre icht.
_X -
_deg rad
_Mich el
_milit är
_memor ies
_ö fter
_direction .
_kompliz iert
_Terror ismus
_winz igen
beh ör
_Gespräch e
_fascin ated
_theor y,
_nütz lich
_mitt leren
_surve ill
_commit ted
_Sub st
_kommuniz ieren
zog en.
_controll ing
_reb uild
_läch er
_sicht bar
_Int u
mitt ag
_Nar rator
_Inner halb
_Beit rag
_convent ional
bevölk erung
_Feyn man
_perh aps,
_guar ante
oen ix
e ing
e e,
m at
o cent
ü mm
_t able,
_d ang
_b y,
_n ett
ir gend
_l ux
_T urn
_T erm
_T äusch
_T K:
_an sehen.
_an scheinend
lich em
_K öpf
_se id
_st ri
_al arm
_er m
_er hol
op t
_ab and
_r ush
_r ising
_im plant
_go es,
_me g
_sich :
ib e
_St ick
_St ärk
_fr ighten
_aus reich
_Sch am
qu ent
ies s
_pl enty
_Y et
ick en.
_vor hin
änd ert
_en h
_Sp inn
_fe ature
ical ,
_ges unden
_ges ünd
_Ch urch
mal s.
_weit erm
_Ne ver
_19 0
_sol ving
_lie gen.
_bring t,
_verst änd
_let ting
_Ab ra
_beh aupt
pro zess
_schw ere
_schw er.
_bo om
land s
richt en.
_kom mer
lag er
_führ ten
_phys ician
_sing ing
_hard ly
_supp ose
_cou rage
_fas t,
_gre if
_Wissenschaft ler,
_Groß e
_stat e,
-A mer
_Tra ining
_patient s,
_besond eren
lichkeit ,
_Gebä ude,
eng ine
_schwier ig.
_innov ation,
_neur on
_Proz ess,
_repr esented
_entdeck te
-b y
_Ziel ,
_stark en
lin ie
_erlaub en,
_Mag net
_dead .
_Ha ar
_spir itu
_block s
_tö ten
_dog s
_mis er
_sil k
_anges ehen
_continu ed
_gefrag t:
_einges etzt
_Californ ia,
bü ch
_Bedürf nis
_metap h
_insect s
_chines ische
_horr ible
_Treib haus
_propert ies
_Pri or
_cyc le
_povert y,
prof it
_Dad urch
_infin ite
_gee ign
_eld er
_Ersten s,
_Teles kop
_compon ents
k ore
k ord
f örm
v iet
j e
j a,
in f
ch e.
_w ed
_w em
_w elt
_s ä
_m ile
_m ade,
re y
_h äss
_f an
_S ier
le hr
is iert,
_p yram
te chnik
_A stronom
ig e.
_T ar
_D iff
_M acht,
ot hing
_F al
_F els
ge ht.
_un b
_H ans
_st ack
_N ick
ag net
and a,
_for der
end er,
_R auch
_wie ,
_wie viel
_le be
_sp ar
_sh ake
ant s.
_An weis
_An führer
iz er
he orie
_want ing
_bes eit
_Kind ers
rit t.
_ra b
_ph one.
_real ,
_Ges amt
_star ten
_ins gesamt
_car s.
_own ,
_trans plant
_versuch en.
_Wiss enschaft,
_rec omm
_fin e.
_imag e,
_school s.
_par aly
erk ennung
_Technolog ien,
_grow s
_7 2
_inv ite
_econom ics
_Frau :
_friend ,
row s
_Ä l
_abs ur
ischer weise
_Verb reitung
_benutz t.
_open -s
_Chr omos
_"A ll
ator s.
_stre et,
_Selbst mord
wach s
_dest in
_Ur sprung
_det ails
_adv oc
_God .
_Kn opf
_techn ischen
_fest stellen,
_"B ut
_everybody 's
_field s
_network .
_interact ing
_setz en.
_ho her
_poor est
_leb ten
_verg essen,
_Sym b
_syn chron
_har vest
put ation
_fert il
_ign ore
_among st
_hig hl
uk lear
_rece ive
_park ing
_Vorstell ungskraft
_befind et.
_gespro chen.
_disapp e
_trial s
_Kohl end
_Col umb
_thre e.
_künst ler
_Dan iel
_spect ac
_YouT ub
_wunderv olle
_parad igm
_kreat ive
_erne ut
_dunk el
_Ap oll
_rapid ly
_partn ership
_ancest ors
geh end
_epidem ic
_romant ic
_sev ere
_umge kehr
_überw ältig
_happines s.
_Konsequen zen
_appropr iate
_establ ish
_natur ally
_Trag öd
_gespiel t
_arab ischen
_Chanc en
_furn it
_DV D
_obst ac
_Kos ov
_ ört
w ä
l ock
g ant
o e
k ultur
_t ät
on to
_m igr
as ste
_h ine
_h yp
_h oh
_in kl
_l asst
_W en
_D ir
_D ien
_D ün
_M ur
_M ahl
_M üt
_M T:
ow ing
ber s
ier ung.
sch ool
_P ole
_P lease
_L ove
_And rew
_H ouse
_al t,
_er adic
ver stand
_j ap
ck ,
_" h
_for mal
_R ou
_R öntgen
isch en.
_war f
_le ap
_le ast,
_St ory
_ge fr
_ge öff
_sh oes
iv ely,
_Sch uhe
qu ality
_con ven
_Er ic
_tr ies
_but ,
_thing :
_Y es.
_ent ered
_Al bert
_di verse
pl ätze
ial .
ob i
_pr ü
_mus ikal
_mus lim
_fe ier
_Fra gen.
_sc al
_sc ore
_mö gen,
_kon sum
_ra w
_ph il
_pass ieren,
_hin unter
_Vor gang
ian ischen
_Aus gang
_Aus rüst
_4 .
_bring t.
_Ind ien.
ichte t,
_Pl ötzlich
_geb rochen
_ben e
_hand s,
_Me g
for ward
_understand ,
_exp osed
_bede uten
_form ,
_Schw anz
_lar ge,
dern .
_Mar ke
_walk s
_stop .
_bekomm t,
_group .
_sound .
zeich nen
ält igen
_Ber ge
_Ber kele
_fund ing
_dev ast
_rad ikal
_cond u
_Bet rieb
_interessan ten
_imm une
_Sü ß
_fing er
_beweg t,
_John son
_reach ing
_recogn ized
_lab ,
_aver age,
_Sek und
_obs essed
_virt ually
_attent ion,
_born .
_Gef angen
_kauf te
-I nd
_langsam er
_challenge .
_Bra nd
_engag ing
_unterstütz en
_vill age,
_refle kt
_Recht s
_Ke vin
_impossible .
_Terror isten
_combin ed
_Sign ale
_discuss ion
_Gebie te
_verbind en.
_lauf en.
_Bang lad
_parad ox
_elektr ischen
-jähr ige
_presen ce
_Bon ob
_betriff t
_Pra x
_onl ine.
_sport s
_ske let
_Auss age
_newspap er
_narrat ive
_gehab t
_Entfern ung
_Ec onom
_dunkl en
_Jew ish
_employe es
_Dutz end
_Anst reng
_ungehe uer
_Lebenserwart ung
2 00
c lear
z um
t lich
o or
P T
_w oo
at ar
_m ann
re u
or ies
or ous
_in ves
_in tend
_n ationale
_S per
_S icher
_S agen
_c ens
_v ierte
_ein e,
_ein sch
al s.
_of ten,
_l ying
_T ok
_that ."
_D ich
_D oug
_B ien
_E t
ot ion
_an zuf
ach te
ol oge
_re cept
_K u
_K andid
_ver teilt
_L ike,
_H imal
_st air
_st age.
_N athan
_von einander
_" f
_R M:
_sch uld
_man ifest
_C ur
_wor se.
_ge fl
_ge änder
_ge zw
_Sch icht
_de fe
hl t
ank en
ain t
_Un i
_had .
_wird ?
_kein em
auf nahme
_now ?
_Ch ance,
_Ch irurg
_tra gen.
_over come
_groß ,
_unter scheiden
?" ,
_off ice.
_Ne ugier
_"W ow,
_Se quenz
_different ly.
_bek ann
_pre v
_4 6
_human .
_geb raucht
_gra in
_technolog ies,
_after ward
_Thank s.
_br anch
_zie hen,
fen se
_verl assen,
_Hand ys
_inst ant
_thought s
_Über gang
_fre e,
ett i
_compan ies,
_dra wn
ster ben
_doch ,
_dist ant
_Design ,
find en
_phot ographer
_Antw ort.
_pers u
_Lie be,
_Tra in
_richtig .
_Stat us
_verd ienen
abil ities
_Dem onstr
_fest ge
_ähn lichen
osp iele
_team s
_Kor an
_market ing
_oil ,
_record s
_wall ,
_viol ent
_scre en.
lin ien
_box .
_Team s
_arr ang
_gebaut ,
_toll ,
_bezahl en
_dro ve
_hous es
rom agnet
_selt same
_2000 ,
_remain s
_etc .,
_sand wich
punk te
_yeah .
_Gem äl
_wunderschön e
pol itik
_gewinn en,
_sor gen,
_south ern
_audien ce.
_Dienst leist
_Kamer as
_shoot ing
_base ball
_victim s
_zukünft ige
_Mitglie der
_Ko oper
_Brenn stoff
_percept ion
_Pfer d
_wav es
_Imm un
_Brun o
_Erwart ungen
_beinhal tet
_wond er,
_init ial
_Präsent ation
_Bedroh ung
_verste ckt
_spok en
_Dial og
_Narrator :
_behaupt en,
_ ält
w orth
w inkel
m aterial
m odell
a ."
l aufen
l ife
o :
k at
s "
R T
in en,
in kt
_t ort
_a t.
_d ict
_s on,
_m old
re .
_b ot
_h ire
_h its
_g rie
_f ährt
_c ents
ig end
_W ork
_D ist
_B enz
_B IP
_G ramm
ach el
_re h
_re -
_K ategor
_ver halten
_un wahrscheinlich
ver halten
_N ächst
_R ö
_R ies
_V i
_sch lagen
_ne ural
ul se
_So z
_sh ell
_sh ame
_aus sch
_aus sehen,
_aus mach
_or bit
_Sch ok
_pe er
_Be at
_get an,
_Pro gramme
_An throp
_Al ters
_Al ask
_Al kohol
_Mensch ,
_di alog
_gen ieß
olog y,
_mich :
_work ?
_kein es
_Ein st
_Leben s,
sp ect
_Kind es
_new s,
ungs voll
_off iz
_pass ierte.
_ad m
igkeit en.
pf el
_4 4
_fact s
teil s
_Ide en.
rat ch
_started ,
_Gl üh
_med ium
_Reg ionen
_Br ut
_Med ic
_organ ize
_old est
_"T here
_gener ated
_End e.
vers orgung
_int uit
_mov ements
_contro vers
_Groß en
_environment s
_außer ord
_Earth 's
_prote ction
_patient s.
_psych iat
-c on
_vo ice.
_invol ves
_Kap az
kü ste
_increas es
_surpr is
_App ar
_Web seite
sm odell
spro blem
_Firm a,
_Regier ung,
gem eine
_Christ mas
_depend ing
_Tre ffen
_früher en
_Sm art
_Islam ic
_galax ies
_automat ically
_virus es
_anym ore
_höch st
_situ ation,
_situ ation.
_lauf en,
_camer as
_Kore a
grupp en
_Chines en
_chines ischen
_Strateg ie
_Schlag ze
_gele bt
_zukünft igen
_forever .
_herausgef unden
_Depress ion
_vulner able
_dou bt
_povert y.
_kor re
_mirr or
_Gebur ts
_imple ment
_adj ust
_awaren ess
_Geräus che
_Änder ungen
_Übr igen
_Abra ham
_Sier ra
_Kohlend iox
w ing
w alk
r ation
d aten
n 't,
a ult
. D.
o h,
k y
k opf
k osten
b rach
v ed.
C H
er zähl
_t ill
_t enden
_t reiben
_b orrow
st ation
st ock
ll er
or p
ar g
_n it
_S amen
_S yr
_S kelett
_c ert
_c red
te in
_W är
_be et
ent in
_T ö
_M ake
ic ious
ra f
_you th
_E hre
_E isen
_G uten
_an fühl
_U C
_re ader
_F rie
im a
op am
end ste
th ur
th iop
ess erung
_So viet
ern ov
_he ight
_Z ellen,
_at oms
_ge geben,
ik es
ik ale
_Sch ritte
_also :
_mach e,
ud d
_Ver wendung
_gen oc
_dar an.
pl ik
ak ul
_how ever,
_actually .
_Gr ippe
_bl ank
_Gesch le
_ac id
_cont ribut
_hel ic
_through .
_verb ring
ges ellschaft
_ask ed,
_Bl ue
_wom it
_zeig te,
_200 7,
_verw ende
_Mus kel
_50 ,000
_expl os
_Pr üf
_Ste ven
_bus y
_"S o
_versteh t
_cr ime
_' 7
_bad ,
_ber uh
_Haus .
_wonder ed
_Kun st,
_guy s.
_connect ing
_const ra
_struct ure,
_conf idence
_glück licher
_risk s
_network ,
_entfern t,
_entfern t.
_beweg t.
_beobach tet
_Rest aur
_Ant ar
_Modell ,
_Comput ern
_Erst aun
_untersuch en.
_Som al
inos a
_Gut .
_konzentr ieren,
_schick te
_Schn ell
_akt uellen
_verstand en,
_transl ate
_Nachbar schaft
_mist ake
_Priv ileg
_erschein en
_domin ant
_vert ical
_Brust krebs
_höch ste
_inj ur
_summer ,
_shark s
_lad y
_lust ig
_applic ations
_Frü hl
_Dat ens
_Link s
ih ad
_Wol ken
_ausz ud
_Zur ück
_possibil ities
_shr imp
_divid ed
_academ ic
_explan ation
_negot i
_accompl ish
_Erdbe ben
_Weihn acht
_Gemü se
_Leon ardo
_Antibiot ika
_embed ded
_monke ys
_Himal ay
_ ärm
u its
r an
r ins
e ast
e iden
z en,
I .
k auf
p oint
s itz
f irm
f igur
v ia
er ten
in i
_t aste
_d icht
_th umb
es e,
_m ic
re en
_the ater
st ücke
_e hem
_f ed
_f ifth
ing er
_n ations
_n aja,
_S yl
_S ET
le uch
_c ute
_A G:
_of t,
ig ma
_l ass
_k g
_be halten
_z ehnt
_D arm
ro f
_B rad
_E astern
_zu ge
_wir kt
il y.
_G let
se y
_re verse
_F ro
_F ried
all en,
all en.
_K uh
_on ce,
_P itt
_L aufen
_se ction
_j ok
_j enseits
op .
_R ick
_ab gest
ill er
_J F:
_O ft
_O xy
_pro sper
ik atur
_wer fen
_Be k
_2 9
_Pro p
_Pro b
_ent hält
_en ormen
ac ted
_work ing.
_gl ad
anz ig
ment s.
_inter con
_over all
_wirklich en
_sel be
own ,
stell ung,
_dis rupt
_20 ,000
_cont ribution
oc ke
_Auf stieg
ün sche
_may be,
_versch wand
_gesch ickt
_sim plic
_dec line
rat es
_rec ycl
pro chen
_med ia.
_bo y,
_interess iert,
ium s
_vis ible
_Tr ink
_sk ull
_lern t
_erw eiter
_norm al.
_Person al
_schl ä
_Pol io
nah men,
_18 .
_Haus e.
_top ic
_fig ures
_fand ,
_schön ,
_Dar f
_nenn t.
_ersch reck
_amaz ing,
_Bed arf
_Bet on
_sure ly
_else where
_neur olog
_prov ides
_Beh inder
_imm un
_erf uhr
_beobach ten.
_17 .
_Ant i
_neg ativ
_photograph s
_hervor ra
_revolution .
_Vide ospiele
_Wohl be
_shap e.
zü ge
_faszin iert
_Kan ad
_verbreit en
füll t
_capt ured
_Sprach e.
_verwand eln
_Zuf rieden
_schau e
_schütz en
_fram e
_Kommunik ations
_Liebl ing
ört lich
_Wür den
_Mont ere
_höch sten
_beschreib en,
_sor ry
_Ital ien
_Schrift stell
_Spr ung
-J ähr
_aspect s
_Hack er
_repe at
_lock ed
_prä z
_wheel chair
_chap ter
_violen ce,
_Elef anten
_tri ang
_Nachhalt igkeit
_bath room
_Schicks al
_Jose ph
_Dunkel heit
-cl ass
_Vo ice
_Neurowiss enschaft
_Mosk it
_kons erv
_Grie chen
_disg ust
_hers elf
_kommer zie
_ är
r ö
r alen
n ach
g äng
o te,
p ox
s or
- mal
f ine
' ,
_w ing
_w enden
_m ad
_m arch
as se.
_h iel
it als
_f ung
_S ke
_S P:
_A th
_v eter
us ale
_T .
_D P:
_ha m
ow nt
_G ive
ot en,
am ed
ier endes
ind en.
sch ul
se e
_K ommen
_K raft,
_st one
ver .
_sie ht.
uch e
end en.
_R ak
_R over
_r um
_auf merk
_V ict
ell ed
_do ?"
_C oun
_So cial
_pro of
iv es.
_ch ief
og ramm
_Sch on
_there fore,
ute d
_out put
_An f
_An ges
_Ver st
_Re ch
_hier ?
are d.
omm un
_gl ac
_ste ts
_inter vent
pr in
_Gr iff
_unter halb
_new ,
_ra il
_po or,
av a
ath ed
ath ers
geb ä
geb iet
_dr an
_cont ribute
_em phas
_Auf nahmen
_ins ide,
_fact ors
_best and
_Ind e
_"I s
äl ter
_denn ,
_design er
_rec onst
_Sach en.
_Kon zentr
_min us
erk rank
_chang es.
_Pr esse
_[ un
_care fully
_Tr end
_sk y.
_warum .
_phys ische
_polit isch
_dre hte
_dre idimension
_nam e,
_beginn ing.
app ing
akt or
_under ground
ric ul
_pos itiven
_stat ement
_Zukun ft,
_children 's
_hour .
_effect ,
_Körper .
_Qu ellen
_computer s.
_product ive
_schwier igen
_cho ice,
_Denk weise
_Beh ind
_adv ice
_arm ,
_glück lich.
iolog ie
reif en.
_team ,
_death s
loss en.
leg t.
_setz ten
-R eg
isc over
_Mark en
_erre icht,
_ann ehmen,
_sam ples
_"What 's
_foot ball
_Revolution .
_includ es
_Brit ain
_toll .
_Facebook ,
_fahr en.
_warm ing
_befind en.
_Reaktion en
_collabor ation
_gefrag t
_Kur ve
_schreck lich
_emotion ale
_Muslim s
_echt es
_Prote ine
_north ern
_schlimm sten
_Zivil is
_Tas chen
_Kir che
_erstell t
_agric ulture
_krie gen
_print ing
_interf ace
_Schne e
_dimens ions
_Arz ne
_Emp ath
_asp ir
_vacc ine
_Jun i
_gefäll t
_featur es
_Lou is
_dedic ated
_stere otyp
_Ehem ann
_precis ely
_lovel y
_irgendwel che
_refr iger
_unbel iev
_Lincol n
inosa urs
r ary
d ring
e ff
h st
h le,
n itten
l ist
k örper
b auen
ü hen
ä her
v ier
9 9
er ien
_t ight
_t ape
_a te
_d um
_s ales
_s üd
as on
_b ones
_h unger
st ers
or ld
is ph
_c m
_c ash
_p urch
_A I
al tet.
_l amp
_W il
_be weisen,
us ing
_D imensionen
_M umb
ere ien
_E D
_wh ale
_wh ales
_zu recht
_an ?
ung :
ind e
_K h
_un ten,
_un ten.
_so ap
_P ut
_L ief
_L T:
_Th ird
_al tes
um en.
ben e
end ed
_r über
_r hythm
_V al
_do or,
_mit .
der m
_are as.
_J ord
_sch ätzen
_le gt
_sich erst
_sp ark
_Sch reiben
qu em
_one :
_pl ötz
_An alyse
_if ,
_mach st
_Ver z
ack en
_year -old
_hab itat
_gl or
_per pet
_ag ing
_durch s
_ob v
_make .
_En kel
_"W er
_pass ierte,
ath ol
_hin sichtlich
_bef est
_ind ischen
_bek annte
_Auf trag
_inc ident
_stud y,
_stud io
_Bl ätter
_Arbeit sk
_ele gant
_brauch t.
_play s
_glaub en.
fol gt
_funktion ieren,
_bi ol
_bi od
_lik es
_fre ie
_At omen
_econom ists
_bre akt
_Ä nd
_leben de
_sign ed
_room s
_Stra f
_schle cht.
_"A ber
_eas y,
_ret ire
_fig uring
_col or,
_mil k
_Musik er
_ident ified
abil ität
_material s.
_tradition elle
-m in
_ess ent
_diffic ult.
_add ing
_circ a
_201 0,
_break ing
_redu ction
_Anfang .
_father ,
zub ringen.
_App l
_incredible .
lo s,
_Erfolg .
_sam e,
_Punk t.
jähr ige
_musst en,
_movement ,
_Revolution ,
_offen bar
_wid ersp
_trut h.
_road .
_industr y.
_Fuß ball
organ isation
_bill ig
_conscious ness.
_hous ing
_democra cy.
_decad es,
_bild en.
zun ehmen
_Hü gel
_analys is
einand ers
_Afrik as
_stimm t.
_MIT ,
_labor ator
_zähl en
bü cher
_telev is
_spricht ,
_kulture llen
_Ext ra
_verein fach
co hol
_Hoffn ung,
_Arme e
_Janu ar
_änder te
_Child ren
_celebr ate
_ter rit
_intu itive
_regel mäßig
_abges ehen
_Schwes tern
_Cambr idge
_Skl av
_"Look ,
_telesc op
_L. A.
_Clint on
_frank ly,
_colum n
_Gemäl de
_ält ere
_aufmerk sam
_breakt hrough
_ /
r is
r ist
r ieren
z z
I n
k rie
p an
ü chte
f te,
/ A
_t ausenden
_a t,
_d urf
_th in
as y
re ien
_h üb
ou d,
ich ert
_f ederal
_S und
ir ur
_l oud
ut ch
_T ed
_T hrough
_M ama
em ploy
ra ph
_B M
_B osn
_E U
_is lam
_ist ."
ot he
_re ly
_K osm
_un h
_un re
_un end
_es ?
_L uther
_Th un
_H ind
_H ad
_er stellen,
eh lt
th ink
_he isst
_com prom
_sp ider
pp ich
_In c
_In tens
_aus m
_aus schließlich
_Sch ock
_con cep
_haben :
_but t
_get es
_An alog
ob ile
_qu er
rie bs
ment s,
_every one.
_Ein schränk
_durch ,
_find s
_beg riff
_beg onnen,
_cl iff
_cl ass,
_tra ff
_tra fen
_Ne g
oss en,
anc es,
_fl ash
_ind igen
_through ,
_verb inden,
ges präch
_sm oke
_wom an.
_Teil ,
_made .
for t,
_schw immen
zie ht
_200 1
_200 8,
_besch lossen
_exp ed
_such t
_Ph oenix
_develop ment.
_disc on
gew inn
_interest s
_Frau .
_Am b
_cr yst
_job s,
_building s,
_Gemein schaft,
_öff net
_Energie verbrauch
_Natur .
-K on
_loc ation
_product .
_gemein nütz
_material ,
_Kopf .
gang en,
_outs ide.
_priv aten
_techn ique
_wind ows
_schließ en
_experiment ,
_drug s,
_Europ e.
_collect ing
_lim its
_cal c
_occ asion
ober fläche
_growth ,
-W elt
_prim arily
bre ite
_national en
_flo or.
_Oberfläch en
_est imate
_protect ing
_Kil omet
_Phys iker
_Will en
_shap ed
_fahr en,
_Ken ia
_Eink auf
_dramat ically
_zerstör t
_Pal est
_lin ke
_cris is.
_ext in
_galax y
_throw ing
_schreck liche
_cook ing
_vehic les
_überle ben.
_Pat ent
_explor ing
_enth us
_ko oper
_notwend ig
_ce leb
_Geschä fte
_repor ted
_kit chen
_advert is
_getr ennt
_contex t,
_contem por
_Klin ik
_Südafr ika
_exampl es.
_Sympt ome
_Tie fe
_apar t.
zipl in
_Schwar ze
_Gerecht igkeit
_grate ful
_"Yeah ,
_berück sichtig
u er,
u es.
u ern,
r ip
i hood
h end
z ym
t ime
n en.
a fe
l assen,
D ,
g al
g led
g roß
k arten
f ilm
ö tt
_a ben
_d ust
_d inosaurs
_s orgen
_m ater
an lage
it es,
or fen.
_f ict
_f örder
_in k
_n annten
_p ione
_A cht
_to ilet
_v ere
al ität
_k ogn
_be ing,
un .
_y es.
et en.
_M oh
_B ,
_B ahn
am e,
's ?
ier ungen
_U lt
all ow
_ver folg
_P ollen
_L im
_L ichter
_N in
ag ue
_R ein
_r ub
_do es,
_do zens
ess p
_J A:
_wie :
_go als
_le iden
_So c
ad ing
_Z ut
_sp iele
og ether
_über leb
_Er schein
ien ce,
_Be wohner
_Pro ben
_pl ans
_vor zustellen,
_act ions
_look .
_world s
_any way.
_cl ust
_need ,
_tra ject
sp ar
_back ward
_Gesch w
_bes aß
ace ut
_kon kur
_res on
_off ene
_lie fern
_Vor der
_gew esen,
_bek annt,
_show .
_Dies en
_4 ,000
_rel ax
_zeig ten
_ele gan
_arbeit et,
_Ab häng
sam en
_Wiss en,
_200 4
_sond er
_med ia,
_imag es.
_Aut ob
_number .
_number s,
_min e,
_Med ical
_"D on't
_second s,
_phys ischen
_Ä ra
_Am y
_hör ten
uck s
_under water
gesch ich
_Wor t,
_far .
_gest alten
öl f
_Kar ikatur
_Moment .
_Lie bes
_verk ünd
_Rob ot
_product s.
_Gebä uden
_experien cing
_miss ed
_priv acy
_result s.
fra u
_Inst itut
_event ually,
_fing ers
_interact ive
_Char lie
_low -
_schwer er
_sozial er
_grand child
_sun light
_wall .
_13 0
_architect s
_architect ural
_produz ieren,
_virt uellen
_Stand punkt
_vol can
_function al
_With in
_erzeug en,
_Kat zen
_verkauf en.
_plant s,
_compass ion,
esh old
_depend ent
_Einz eln
_Psych ologie
_fro g
_transl ated
_lok al
_depress ion
_winz ig
_Wörter buch
_Präsident en
einand er,
_erhö ht
_Erwachsen e
_Ingenie ur
_contain s
_Tas man
mutz ung
_rare ly
_hang ing
_conserv ation
_allgemein en
_appe ared
_opin ion
_extern al
_Konflik te
_beantw or
-cent ury
_Richtig ?
_Wü ste
_beiz ub
sun ami
_craz y.
_Letzt es
_Teuf el
_Cra ig
_erfor schen
_trig ger
_Detro it
_Gip fel
_Zerstör ung
_Konstru ktion
_bemer kt
_bene ath
_[un clear
h ai
a ucht
g ing,
g ing.
k rä
b ein
b aum
s al
N C
- ch
f ig
R .
_a esth
_d ate
_s enden
_s ulf
_h ors
_f o
ar den
_n äh
le hn
_c ab
_c oo
_p age.
_to llen
om a
_l an
_l ap
_k alt
_M ount
ic ient
_G overn
_ver ge
_un angen
_L eh
_L amp
_L esen
_se a.
_H osp
_st un
_al cohol
ver kehr
_all gemeine
_R iff
_r as
_r ender
_V an
_sch äd
ist er.
_man 's
ul a
_C oca
_sp ill
_sp ons
_sh ort,
_ch amp
_über wach
_mein en,
_but ton
_Be w
_Be ide
_her an
ack t
_te x
heit en,
ip end
_Wh ether
_sc an
_ob en,
_ges unde
_Ch ip
_tra gen,
sp erson
_Kind .
_new .
_ph ase
erent wick
_hum or
_hum il
_dr ast
_Se ktor
_thr eshold
_good s
_hel pf
ian .
_verb racht
_comm od
_happen ?
_big .
_versch le
_geb eten,
_pol y
_doing ?
_rec ru
_rec ip
_med it
_such te
_verl or
_Kon kur
_min or
arbeit en,
_Ent steh
_interess ieren
_Ex p
_cent ers
_vis uellen
_Univers itäten
_art istic
_darauf .
ster o
ständ ig
_Denn och
_' 6
_far b
_dist ributed
_job s.
_Wer den
_Sh ould
ohl en
_pos it
_hear t.
cl ock
-P l
_scient ist,
_Produ ktiv
_Organ e
_Gesell schaft.
_Sinn .
_hoff n
_material s,
_object ,
_histor ical
ape ut
_Kn oten
_techn ische
_Can y
_entdeck t,
_hold s
onst ru
_pick ing
_Unternehmen s
_Bro ad
_HIV /A
_Gleich gewicht
_expect ations
_ansch aut,
_Gedank en,
_key board
_anf ing,
_pull ing
_fail ure.
_sage :
_Mag ie
_Viel zahl
_Vide o,
_spread ing
_student s.
_unterstütz en,
_gefähr d
_touch ed
_serious ly
_verrück t.
_bab y,
_subject s
_jen en
_Prinzip ien
_search ing
_text book
_Bel ast
_democra cy,
_akt uelle
_heut ige
_mountain s
_Hin weis
_Pal m
_inn ere
_doct or,
_Fing er,
_thre w
_earl ier,
_assum ption
oz i
_Lib y
_"U nd
_Altern ative
_synth es
_synth etic
_Jer usale
_ausges etzt
_agre ed
_algorith ms
_therap y
_Mitglie d
_Treib stoff
_zent rale
_destroy ed
anst alt
_Fant asie
_Inn eren
_Investition en
_Ökonom en
_Schreib t
_brill ian
_agricult ural
_Prototyp en
untern ehmen
_Wirt schaft,
_Batter ie
_worldw ide
_Diagn ose
cur ity
_I’ m
_verkn üpf
_Kompon enten
_hilf reich
_angem essen
_Klav ier
_Moo re
_auszud rück
_SET I
_biol umines
_biod ivers
r ise
z ellen,
m eld
n ’t
l äs
I N
o on.
k er
p ath
f rag
B C
' clock
1 0
in 't
_t ied
_w ine
_s le
_s ess
_s its
_th er
at ely.
_b ump
st er.
st het
_o 'clock
_f est.
_n ör
_S ich
_W äre
_k äm
us es
ent wick
_T ri
_D opp
ic ing
_B u
_E M:
sch icht
_F oss
_F ett
_un p
_L ake
_Th ail
_H orm
_H ät
_H alt
_all zu
op y
_R et
_ab geb
ell e,
_J ill
_sch ie
_sch ief
_sch izophren
_C amer
ib t.
_Wir d
_con ce
_Er geb
ies en,
_up d
_her ab
_her be
_Ver mögen
ial ,
_has t,
_bet rä
_jed er,
wer t.
_Ne xt
_Was ch
af el
_verb ringen,
_verb racht,
_4 3
ichte te
_learn ing.
_versuch ten,
_person ally
_creat ure
_kl app
_glaub t
_6 .
_mal .
arbeit er
_interess iert.
_De z
under ten
_Comp an
_prob ability
_norm al,
_Energ ie.
_under lying
_co ach
_bestimm en,
_gest alten.
_ey e,
_prote ins
legen en
_Sta aten.
_test s
_mess en,
_Glück .
_Glück licherweise
schn it
_const ructed
_Ur kn
_dep artment
_Sc ot
_team .
_Auto s,
_bel ohn
_stra nd
_sug ges
_Wahl en
_map .
_whatever .
_Lond on.
-p ower
_bar rel
_prom ote
_English .
_knowled ge,
_konzentr iert
yr ight
_Zent ral
_samm eln.
_sprach ,
_memor y,
_Herr en,
_perspect ive.
_inn ocent
_anges ichts
_unmöglich ,
_suggest ing
_bur ied
_Regen wald
_künst liche
_cru cial
_älter en
_sus pend
_Roll stuhl
_getro ffen,
_gewiss ermaßen
_theor y.
_Ereign isse
_concl usion
_leist en.
_Instr umente
esth es
_außergewöhn lich
_Pre m
_Mitt leren
_Pop ulation
_Fläch en
_Kreis lauf
_tit le
gebie te
_purs ue
_Rücken mark
_Republ ic
_libr ary
_Aufgab e,
_broth ers
_violen ce.
_beantw orten
_sympt oms
_Märk te
_authent ic
pfl icht
_U-B ahn
_efficien cy
_Okt ober
ockt ail
_Aller dings
_Oct ober
_surveill ance
_Subst anz
_spectac ular
_inkl usive
_Schok ol
_Syl via
aceut ical
l ungs
k il
ü lt
- 2
- -
R A
er ving
_a ug
_d ruck
_s ill
_s ize,
_m ask
re cher
_h itting
_h ielten
_h oney
it ors
ou d.
_I P
_I Q
_n ic
_n erve
_p upp
_to ile
_l ens
_W eiter
_be wer
_be ides
_T enn
_T enden
_D ick
_M ak
_B it
sch ild
se c
_K ok
_ver lei
_un e
_un in
_un iform
_L G:
_H ass
_H ipp
_H aust
_er stellen
_N äch
_" l
_" p
_R NA
_V arian
_dies mal
_O z
_com e.
_what so
ik er,
iv .
_or gans
qu elle
_de al.
_tr ash
ap or
if ahr
our ce.
_Un abhäng
_gen ere
olog ie,
_Re isen
_Te chn
_off ice,
_spe zial
_werd et
_"W o
_"W ho
_pass ing
_zwe if
_dis as
_lie ben,
_fl üss
iger weise
_sehen ?
_wieder her
_stud ieren
äl sch
_exper imen
_letz tlich
_Fl asche
_einz iges
_ele cted
_person 's
_200 9,
_ander es,
_wahr en
äng t,
_verl assen.
_Hand ,
_small pox
mit ten
_sub mit
_Fr id
_Person .
_Schl imm
_Mar s.
str ateg
gesch ritten
_Mann es
iere .
_Krank en
_Information en.
_cur ren
_Ob vious
_beste ht.
_"O K,
_sound ,
_12 .
_cult ures
hol en.
_sit e.
_sex uelle
_Bet rachten
_überall .
_schwier iger
_cho osing
_else 's
_Proz esse
_program ,
_Can ada
_focus ing
_entdeck en.
_instead ,
_Europ ä
_Geschichten erzähl
_Herausforder ung,
_setz en,
_sozial es
_Richt ungen
_sun .
_map ,
riff e
_Versuch e
spro gramm
ograf ie
_"You 're
rän kt
_bege g
_rul es,
_rul es.
zeichn ungen
_poll en
wesen heit
_Zeich n
_Vol ks
_transport ation
_cris is,
_minute ,
_gestell t.
_täglich en
_lieb te
_div ide
_Ingenie ure
_remind ed
_leist ungs
_verfol gen
_surround ing
_manufact ur
_entwer fen
_Krie ges
_Ans ichten
_danc ing
technolog ie
_seas on
_Off ensicht
_Sar ah
_contr ast
_pil ot
_ru in
_Samm lung
_journe y,
_Ordn ung.
_Wäld er
_ingred ient
_expon ential
_Wats on
_aston ishing
_Sant a
_Intu ition
_Äl ter
_ehem al
w esen,
r ung
i ac
m od
m uster
a ze
l ers
g eln
k ont
ä k
y d
y e
er al
in burg
_t est.
_d ive
an ol
re me
_b or
_b other
_h ängen
_u til
_I g
_c raft
_p unch
_W ollen
un ction
_D R:
_M r
_M er
_M au
em a
_we iss,
ra ll
_you ?"
_B le
_B ibel
_E v
il z
_it :
_an zub
_an wenden
ind ungen
ol on
_un pre
_so ?
_P oll
_P oes
_H as
_den se
ag in
ck e,
uch t,
_nicht -
_R am
_V agina
ess el
_ne igen
_war n
_war s
_O d
_St ich
_ge ändert
_sh opping
_aus wähl
_The orien
ah me
_Le iden
_Le go
men ge
od urch
ute t
_Be z
_just ,
_Pro v
_Ver t
_Ver fahren
_Al an
_gen annt,
ss p
ard en.
_en ables
he ben
_qu it
_pr ize
ne iden
_sc ary
är t
ph an
ph ones
fl u
_bl ue,
_unter drück
_bes essen
_those .
_weit erentwick
_En th
geb ung
_star s,
_Vor les
_bef ür
_5 .
oc ortex
_Auf t
yp e
_human s.
_fun ,
_gesch lossen
_gesch rieben,
_ben utze
_Gen et
_today ?
_str ip
_200 3
_200 4,
_cons ult
_weiter ge
_sl aver
_verl iert
_develop ment,
_mean s.
_reg ret
_nam e.
oren en
_machen. "
_frag te,
_compan ies.
str on
tem peratur
_Krank ensch
_red ,
nah men.
_exist ed
_Design s
_Met ern
_12 ,
_rest ore
-K opf
_Organ ismus
_biolog y,
-d own
_Ur laub
_dir ty
_Kn ie
_arm y
_wohl haben
_glück lich,
_Flug zeuge
_pap ers
_erf unden.
_Robo ter,
_U.S. ,
leg te
_Hö hlen
_ansch ließ
_Car l
_Technik ,
_access ible
_Fern seher
_verbess ern,
_consum ers
_consum pt
_zuvor .
_verg essen.
_English ,
_Ha ie
_prop os
zeichn et.
_Sol arz
_sustain ability
_card s
_Arbeits platz
_Bas ically,
_plant s.
_eth ical
_fire .
_ak adem
_Austral ien
_separ ated
_» W
_Ed inburg
_fro zen
_graph ic
_inn eren
_ext ent
_winz ige
_Ganz en
_kil ometer
_angef angen,
_erle ben.
_cold ,
_Ser ie
_Gelegen heit,
_überle gen,
_err or
_German y,
_ursprün glichen
_atmosph ere.
_Höhe punkt
_mill enn
_enter pr
_subst ant
_repe ated
_beschloss en,
_accur ate
_gentle men,
-th ird
_Jeff erson
_engl ischen
_aufgew achsen
_Folgendes :
_Berechn ungen
_Urs ache
_Pingu ine
_Mandel a
_philosop her
_Großv ater
_Shakespe are
_Apoll o
_helpf ul
h enden
h undert
E S
g änger
ü tig
ä ger
K W
_d ick
_e ast
_u b
_I T
_I gn
_n ann
_S ound
_S av
_c ous
_die d.
_v ib
_v oc
al ter,
_l ess.
_l öst
_W K:
_W ände
_k at
_k iss
_k orr
_be ängst
us ion,
_T oten
_D al
_M and
_M arch
_M ax
_B ier
ot es
_it ;
ber n
uf en.
id ers
_F unk
_K a
im ed
_L u
_L ust
_j üd
_for men
_R ichter
_V ul
_C ap
kt oren
_ge fühl
_ex akt
_aus länd
_um welt
_We 'd
_ch osen
_über nehmen
_tr at
_tr ink
_get .
_Ar du
_her z
_Al ice
_Un glaub
_en for
_Re form
_Re fle
_Ge ographic
_durch zuführ
_gr asp
_Welt all
_Welt bevölkerung
imm el
_things :
_bes t,
_ad oles
ok al
_zwe ieinhalb
anc er
_vers or
_star ben
_lie ben.
_fl our
_bef rei
_bek annt.
_Problem s
_best immen
_Ind us
_heraus ge
_bit te,
_hand eln.
_ihn .
_Me et
_erst e,
_New s
_dazu .
_min ister
arbeit et
_op en.
_8 .
_stand ,
_7 .
_Pr inc
_polit ics,
_supp orted
_project s.
_Verb esserung
_Min uten.
_half ,
zahl en
_int rins
reit en,
reit en.
_leg s.
_"A n
_Gew äss
_Grupp e,
_col ony
-s um
_Not en
_erinn erte
_langu ages
_move .
_sens ory
_Ber ühr
por t,
_Musik .
_patient .
_fra ction
_rad ically
_sex .
-G es
_Beh aupt
_tool s.
_Sc ient
_Europ a,
_16 0
_Some body
_niemand en
_super mark
_weltweit e
wär tig
griff en
_produz ieren.
_bemerk t,
_leb t,
_musst en.
_rock s
uell es
_hosp itals
_flu id
_flow ers
_konzentr ieren.
_Mc C
_hospital .
pre chen
_Eff izienz
_mist akes
_Fle derm
_inf iz
_push ed
_affect s
_la id
_anfang en.
_gründ ete
_stimm t,
_berühm te
_vergleich en
_verfol gt
_leid enschaft
_Nam ib
_applic ation
_aufhör en,
fäh ig
izz a
_lebend ig
_esc ap
_liv ing.
_privile ge
_Gree k
_Quanten mechan
_wü tend
_erhe b
_shad ow
_Weis heit
_Epidem ie
_Kenn edy
_betro ffen
_bom bs
_antibiot ics
_Dig ital
_Widers pruch
_phil anthrop
_Vict or
_ ›
w ,
c ar
h ä
m pf
n et,
g ut
v ere
y ?
j a
“ ,
in u
_a qu
_d ys
_w aters
_s ang
_s ure.
as ien
re gend
st en.
it en,
it ary
_f iction
le ktion
le mm
_c ycl
_W in
_W ähl
_W olf
us ions
_D r
_D AR
_M agn
ot on
am a.
_U V
_re ject
_F örder
_F emin
_K auf
_ver pf
_ver gewalt
_un schuld
_P ink
_P ause
_P upp
_P yram
ke ep
_H istor
_N ations
_N ike
ag t,
um en,
op ol
_ab n
_r ank
_r ating
_J up
_sch rieben
_sch ieß
_C our
_le icht,
_mo od
_O hren
kt ar
_St il
_St ap
_not es
ah id
_or b
_Sch werk
_pe op
mer .
_de cent
_con vert
_Er satz
_people ?
_kn e
_Ar thur
_pl ain
_An spr
_vor ge
_her stellen,
_Ver zweif
_Mensch lichkeit
änd ig
_en v
_Re is
äch er
ond s
_were .
_qu ie
_Sp ir
_Sp itz
_inter akt
_cl ar
ph ys
_Welt bank
erst erb
_groß em
rei ß
ish .
ish ,
_dis ag
_vers amm
igkeit en,
_ind ire
_5 2
_pre -
ire ,
äl te
_sim ult
zent en
erm ann
_technolog ies.
_einz iger
kl asse
_Geh ör
_Nach frage
_Bild ung,
_min e.
_Hand lungen
_15 .
_op ens
_Über all
_Über setz
_partic le
_cent er,
_mag ical
_Is n't
_care ful
_reg ist
_erw ä
_Ä thiop
_System s
_cor ruption
_ass ess
_ass emble
_Verb rechen
_sah en,
_light ing
_group s.
_mov ie.
_leg te
_Wissenschaft lern
_Bü hn
_fol g
_fol k
_ret ten,
_Ber lin
_Uns icherheit
_invest ieren,
_Kun st.
_iss ue,
_defin iert
_Film ,
_bed room
_Mutter .
_bevor zug
_ident ical
_opt ions
_robot .
_großart ig,
unter richt
_Beh ör
_Inst all
_liter ally,
_del iber
_eg gs
_14 0
_lim b
_ansch auen.
_sun ,
_lab .
letz t
_Mot to
_Projek ten
_bottom ,
_Wo her
_gelern t.
_function s
_knowled ge.
_Blut gef
_et abl
_Besch äft
_Stern en
_optim ist
_samm eln,
_memor y.
_breat he
_Druck er
_kontroll ieren.
_compet itive
_Kan ada
_reag iert
_Austral ia,
_Ern ähr
_deliver ed
gän ge
_bild en,
_Aufmerksamkeit .
_colleag ue
_webs ite.
_gelang en,
_einges tell
_wis st
_Second ,
_las er
_calcul ate
_author ity
_hall uc
_Sa al
_Tor onto
_ursprün gliche
_Etw a
_Comm un
bro chen
_interag ieren
_Abst and
_religi ösen
_Pri ze
niss e,
_Neben wirk
_reve al
_cha ot
_intu ition
_Einricht ungen
_resourc es,
_Anim ation
_sympt om
_Pfl anze
_ens ure
_contex t.
_pengu ins
_neut ral
_shar p
_zusätz liche
_Cha os
_Ägyp ten
_Konsument en
_unerw arte
li ament
_Benj amin
_Daum en
w ort
r en,
d is
d am
c ip
m an.
l ust
l ines
l ime
o ter
k ar
p enden
v ed,
' .
j et
_t aten,
_t esten
_a in't
_w ife,
_s ettle
at iver
on :
_m idd
as hing
_b oo
st oß
or fen,
_p ix
_W ood
_W ett
_z usch
_T ut
et tel
_D imension
_M ind
_M other
ra de
_B oth
il a
sch le
_F ood
all er
_un heim
_un employ
_L H
_H ai
_st immen
_N adel
_this ?"
_j ahre
_for ce.
_R oss
_R ena
_r ate,
_r ate.
_J am
_sch eit
_le an
_le uch
ib ri
_O el
os it
_ge kommen,
iv ely.
ah ara
_des erve
_ma ß
ate ur
_Be teil
_out come
_An h
_her r
_gen ius
_will st
_Ge genden
_dann ?
rie d,
än ner
_Ein mal
_bet rieben
är kt
sp unk
sp unkt
_part s.
_part ly
_Kind ersterb
_Ding er
_po ison
_"W hen
_dr ücken
_hin ein,
_cont rad
_lie gen,
_Aus gaben
_4 50
_sm ooth
_hal ben
_verst ärk
_Bl ü
_haben. "
fahr er
rä ger
_Me ere
_200 5,
_Unter wasser
_weiß .
_cons ume
_imag ined
_ander s,
_besch reiben
_sagen ?
_Ph arm
_Br uch
_Kon z
_Med ium
öff entlich
_tre e,
_met han
führ en,
_schn elle
_bi as
_Lebens raum
zeit ,
_point ing
_führ t,
_phys ics,
_polit ician
_Dank ,
fall en.
_though t.
_erk annte,
_fast est
_under w
_Chr is,
_dabei .
_ber uf
_Ged ichte
_reason s,
setz t.
_„ H
_stat t.
_Gew iss
_Gew alt,
ced en
_hour ,
_young ,
_Licht .
_left -hand
_zweit es
_invest iert
los igkeit
_Bes ond
_home work
_train ing,
_Glück s
_Gegen stand
_verwend et.
-G esch
_law .
_conf irm
_cool ,
_erklär te
_schließ t
_Ir an,
_activ ity.
_arg uments
_Kom prom
_interact ions
_evolution .
_Su pp
_alt ru
_fantast ic.
_conc ert
_squ ee
_Verein ten
_Res erv
_approach ,
_fear .
_fort geschritten
_Innov ation,
_sud den,
_institution al
abl es,
_trut h,
_danach ,
_predict ions
yr ann
_bill iger
_überzeug t
_herauszuf inden
_wähl en,
wiss enschaften
_gespro chen,
_kompliz ierte
_mist ak
_sitz en,
_Phil adel
_anym ore,
äst hes
_ermöglich en
_wunderschön en
_Mat th
_liber al
_unl ik
_assum pt
_hyd ro
_Ess en,
_accident .
_saving s
_Nor weg
_myster ious
_cloud s
_verschwind en
_mer ely
_afrikan ische
_partn ers
_puzz le
_Ac adem
schlä ge
_succes s,
_Hör en
_darstell t.
_gewähl t
_ruh ig
_entertain ment
_pian o
_übertrag en.
_Bom ben
_Wom an:
_Waff e
_sorr y,
_tack le
_irr ational
_Dipl omat
_inten se
_Füß e
-and- a-
_exponent iell
_Zä hne
_Vergn ügen
_accep ted
_neighb ors
_"Let 's
_Michel angel
_inves ted
_Oxy tocin
_Entsteh ung
_Philadel ph
d ie
z ure
D E
p ie
b ür
er gebnis
_s ight
_b os
_h eter
st ern
it äre
_e at.
or ph
_f esth
_in mitten
_n irgend
is st,
_A stero
_ein s,
ent wickl
_T ön
_that ?"
_M ü
_M att
_B amb
_B uild
_G it
_an ruf
ber ry
id ge,
_re ale
ge we
_ver teid
_L ot
_L ein
_se en.
_H ut
_H itze
_al ph
_N ein
_N est
ag d
ag s
um an
_R iesen
_r äum
_V in
ess im
_J enn
_J ones
_C ou
_ge ograph
_ge wohn
we iß
_aus :
_Le ber
_de ar
_de ck
_mein te
_get ,
_oder ,
_ent rop
_who 've
_Ver halten.
_Ver halten,
_sa ßen
_te eth
_Ge org
are d,
lie st
_Sp ring
act ion
auf gaben
_gr öss
_beg un
_bl ame
_unter sucht
_dis able
aff en.
_Ges am
_Vor gehen
_5 .000
_happen ing,
_versch wend
_geb eten
int s
_Tag e,
_spre che,
_exp ort
_zusammen f
fol ger
_gel ähm
les s,
_mal es
_mal ar
_word .
_sogar ,
_tre ibt
_ans pr
_50 .000
_9 8
gew and
_vis ion.
_reg ion,
_Fr ont
_lern ten
_anim ation
_As ia,
hip .
_Ä qu
_frag t,
akt oren
str ong
_vier ,
-M odell
_Freund ,
_month .
_mov ie,
_dist ingu
_18 0
äuf er
_"A nd
_exist iert.
_schön es
_Not fall
_erinn ern.
_ersch ien
_sens ors
_Tra de
_biolog y.
_fra ct
_defin itiv
_Em ma
_mess en.
voll en
_chem ischen
_Kopf ,
_colle ge,
vie wer
_bod ies.
möglich e
_add ict
_Beweg ung.
_film m
_solution ,
_activ ities
_"L e
_Nat ure
_pattern .
_Fahr er
_nämlich ,
_dream .
_sug gestion
_evolution ,
_Har ry
_inspir ing
_jo ke
_Unterschied .
zub ringen,
_recogn ition
_Ant arkt
_condition s.
_approach .
_obs erve
_Erfolg s
_born ,
_Mikro skop
_schreib t
_arr ested
_ball oon
_Führ ungs
_With out
_Som it
_convers ation.
_toll es
_1, 5
_psycholog y
_tend s
_avail able.
_achie ved
_Bürger meister
_integr ated
_character istics
_geschaff en,
_vertra uen
_everywhere ,
_cross ing
_Funktion en
_verwand elt
_aussie ht
maß en
_diagn osed
_forest s
_Zweit ens,
_erz iel
_besuch te
_zus ätzlich
_kämpf en.
_determ ined
_ultim ately,
_Got t.
_Beruf s
_camer a,
_außergewöhn liche
_König reich
_Anwend ungen
_commit ment
_erforsch en,
_zeich nen
_Tanz an
-jähr igen
_Get re
_Kapital ismus
_Student en,
_Lat ein
_betriff t,
_tele phone
_Ster blichkeit
_Hoffn ung.
_prototyp e
_Emot ion
_Vis ual
_eigent lichen
_cod e,
_zut ief
_perce ive
_journe y.
_implic ations
_Bod en,
_Alzheim er's
comp uter
_dipl om
_physikal ischen
_proport ion
_brit ischen
_emb ry
_referen ce
_Beij ing
_Nah en
_remo ved
_nachhalt ige
_insur ance
_ug ly
_Läch eln
_Apr il
_Neander thal
_schluss endlich
_Wär me
_Inde ed,
_Änd erung
_Princ et
_midd le,
_ 0.
w in
u der
d auer
e te,
i hen
h ot
a ed
a ired
b a
_t as
_t ong
_t urb
_a h,
_d inn
an i:
_b ed,
_b zw
_e ch
_g onna
_c ott
_A .
_A ra
_v alle
_ein f
_ein setzen
_l asse
_W ow.
ur ger
_T ax
_M auer
ro vir
_B ad
_is ?
_wir ?
il er
_an halten
am our
ung ?
id el
_re isen
_K ans
_j elly
ist in
_C ous
_C ost
_le eren
_le ather
_dies e,
_O ption
_com press
_In halte
_ge form
_fr on
_um gehen.
_ch am
_Sch ad
_ma il
_tr inken
_ar ray
ick t.
_vor an
_Ver teilung
_nur t
ak ,
_en de
_Ge wohn
_hier für
lie gen
_ste al
auf bau
igh ter
sel y
ult ural
_bei ,
_cl othing
_groß e,
_unter sch
_lo hn
_ra us,
gend er
_dam n
_"W here
gl es
_5 4
_verb unden,
_inc or
_human ity.
_dec or
_klein en,
_heraus zu
erm ord
_learn .
_mak e,
_arbeit et.
_Grund s
aw att
_plan .
_exp os
io let
_wahr ,
_found ed
_gel angen
_ec ological
_Mus e
_Aut ismus
_Br an
bl og
_Hand eln
_30 ,
_inst rum
_Ex ped
_famil ies,
_vis ion,
_[ S
_reg ion.
_As ien
tre ter
_cor als
_project s,
_Mar s,
_heiß e
_Verb esser
_Mann .
_cur ricul
_Wer ke
_„ N
dr ücke
_elect r
denk en.
_six ,
hol en
_individ uellen
_Form .
_fund ed
_stre et.
_nothing ,
_Gesundheit ,
_answer s.
_contin ues
_differen ce,
_sit e,
_defin ieren
_kurz er
_Schul en,
_along ,
_tool s,
_Krankheit en,
_glück liche
_Flug haf
_pred icted
_Beweg ungs
_solution s.
_drug s.
_16 .
_Cl ub
_Masch ine,
_explain s
_statt f
_ill usion
_fu hren
_Technik en
_bemerk te
_erstaun lichen
_mechan ics
_pres erve
_emer ged
ennt nis
_box ,
_bottom .
_arr iv
_tin y,
_emp ir
_polic ies
_song s
rel ated
spiel er
_entscheid end
_behand eln.
_reag ieren.
_Hoch zeit
_Ern st
_Russ ian
_Russ land
_geschaff t,
_danger ous.
_decad e,
_Verl angen
_Spaß .
_gelang en.
_valu es,
_Francisc o,
_irgendein er
_jud g
_west liche
_berühm t
_verbind et
_Ru he
_surger y.
_conflict s
_Kir ib
_Kurz em
_Inse kt
_Bang al
_erforsch en.
_Dis ney
_lad ies
_besitz t
_Dre ie
_atmosph ere,
_Pil ot
_einzigart ige
_mix ed
_gather ing
_entwer fen.
_Videos piel
_dom ain
_addition al
sum men
_esc ape
_Log ik
aktiv ität
_beteil igt
_Jahrhunder t.
_Bras il
_lifet ime
_Orig inal
_happines s,
_mam mal
_hypoth es
_ethn ic
irat et
_Parte i
_exec ut
_gesellschaft lichen
_grav ity
_announ ced
_Therap ie
_dipl omat
_Sum me
_Hung ers
_deta ill
_dens ity
_Weib chen
_Shang hai
_Hard ware
_geret tet
_progr ess.
_Moz art
_Tok y
_ärm sten
_Coca -C
-and-a- half
i -
h all
z ehn
m e,
l or
l ern,
o "
k om
k en.
k onstru
p ing
p ted
p rech
s etzt
A ,
V :
- sp
f ische
v iol
_t ang
_s oup
es :
_m ü
an a,
_b ös
_h arn
st il
st äd
it es.
_e uer
or ter
_f ehlt
ar b
_S O
le in
_p it
_v ia
ir tschaft
_ein be
_l ud
un ter,
el tern
_T am
_T ank
_T ausenden
et ts
_D ame
_D uring
_M aster
ro b
ere i.
_B rie
_E ll
_wh is
_zu gleich
il dete
_it ?"
ach .
_re v
_F ischer
_F ettleib
_K eit
_K uchen
_un n
_un endlich
_P I
_L ass
_se a,
_H u
_H als
_st ör
_er we
ver hält
ver läss
ver mögen
_N az
_N air
_den en,
ag os
op ,
ation en,
ation en.
end er.
_R en
ell e.
_do od
_do or.
th ers
ith er
_le af
_So nd
_Z oo
_O .
os aur
_com ing.
_1 :
_sp aren
_St unden,
_ge zogen
_aus such
_aus zub
_des k
_Le w
_Sch ein
_Sch merzen
qu ently
esch ön
_Be wert
_ent r
etz ung
_her stellen.
_Ver mut
_Ver pflicht
ack ,
_Un gefähr
olog y.
he ber
anz .
_Sp äter
_ag greg
_find et,
_bl ink
_wo ke
imm ung
rei ft
_spe kt
anc ing
ody nam
_show ,
_Art ik
_damit .
_4 7
_gem essen
_bas ket
_gesch rieben.
_ger ed
ull y
_Her ange
_Ab ed
_Gen auso
_Afr ikaner
_Wiss enschaft.
_life ?
br id
_lif es
_Kl uft
_besch äd
_kid .
_Mus keln
_Mus lime
_Ph antom
_gef allen
ars h
_op enn
_De velop
_9 00
_Stud ium
_vis ited
_gener ation.
_lern te,
_cap s
_Person en,
_Ä ng
_benutz ten
_Inter pret
_Fall e
_int rig
_red esign
ühr en
_„ S
_stat es,
_fol gen.
_gesag t.
_Gra vit
_self ,
_sicher zustellen,
_girl .
_Selbst ver
_Sinn e,
_pain ful
_experien ces.
_object s,
_object ive
_Pe ace
-G en
_Lös ung.
_law ,
_cra w
_serv ed
_serv ices,
_vo ice,
_Krankheit .
_diffic ult,
_liter ature
_experiment al
_oper ation
_relig ion,
_201 2
_genet isch
fäll ig
_Hö lle
com ,
_communic ations
_Meer essp
_powerful .
_Gedank e,
_Jap an.
_Versuch en
_excit ing.
_foot print
_Archite kt
_log ic
_vol ume
the orie
_medic ine,
_def end
_Viel f
_institution s,
_Führ ungsk
_perfe kten
_Könn te
_electric ity,
_road ,
_tö ten.
_suff ered
_schick en.
_sleep .
_shap e,
_software ,
_vac cin
_interessant es
_saf e.
_finanz iellen
ücht ig
_decad es.
_terror ism
_ine qual
_return ed
_merk en,
_continu ous
_besuch en
_influen ced
_arbeite te,
_desp air
_läuf t.
_erle ben,
_reduz ieren
_strug gling
_labor atory
_ermöglich en.
_Mat he
kele ton
_beschreib en.
ffic ient
_custom ers
_aufhör en
_Medikament en
_Gest altung
_bemerkens werte
_Result ate
_Janu ary
_Stoff wechsel
_Mechan ismus
_Situ ation,
wissenschaft ler
_anti -
_Ach se
_Aust ausch
laub nis
_Lar ry
_Konzep te
_Florid a
_tie fe
_surge on
_Algorith men
_perce ived
_verhind ern.
_king dom
_Gand hi
_encourag ed
_resc ue
_vorbereit et
_Bem erk
_lic ense
_Zweif el
_&lt;br &gt;
_beher rsch
_well-be ing
_gesamm elt
_pharm aceutical
_Twit ter.
agh etti
_Schwed en
_Löw en
_microb ial
_open-s ource
_Pitt s
_contempor ary
_Dez ember
_Offensicht lich
_unpre ceden
_verpf lich
_Meeressp iegel
_ _
u ktion
u ana
h ten
z one
k en,
- ne
f te.
_t ab
_s ir
_i ce,
at em
_m as
as h,
_b end
_b aten
_b rä
_h ired
it el
it en.
it amin
_e B
_e chter
_f ly.
_f aul
ar ies,
le ben,
_c ere
_c iv
_c ateg
_A hm
_A gn
_ein schließlich
al ous
al tet,
ig et
_W ürf
_W right
_k raft
_be en.
un ft
_T ast
_T ode
_D on
_D ein
_M ün
ro tt
_B ör
_B iologen
_E vent
_G ast
ot o
ein s
_an :
am i,
_re duced
_K atz
_ver fl
_ver lieb
_on ?
_P ent
ten n
_L ord
_H o
_er kl
ag t.
_" t
eit e
end sten
_ab sen
eh ,
_auf gef
_auf einander
_V ene
_sch mutz
_C od
_C af
_St immt
_ge kommen.
_Le v
_Sch izophren
_Ar ten,
_pl ate
_An nahme
_Al though
_di lemm
_act .
ac es
_Ge or
_ever .
_work ed.
ste igen
än glich
_inter ven
_pr inter
_bet we
auf en.
_durch aus
_ob jekt
_need s.
sp ielen
sp rache
_groß züg
_wo zu
_got ta
_unter wegs
_3 4
_Ne p
_real izing
_time ?
erg arten
_star t,
ep s
_Pl at
_end anger
_produ kt
_gra usam
_hand eln,
kl ah
_genau e
_Fre ud
_cour t
_started .
_200 ,000
_weiß t
_Gl amour
_plan t,
_commun ities,
_Technolog y
_high .
_tre es.
_old er,
_15 ,
_met er
_el ite
_Stud ie,
_erzähl te,
_Tr ends
_Fr ucht
_econom ies
hip ,
app ed
_System en
_land en
_land ed
_Mar c
str om
_Dann ,
_coll apse
_Chr is.
_dist urb
_week s.
_leg acy
_Haus ,
_global er
_Woch e,
_Ele ct
ätz e,
erein ander
_exc ell
_mar ry
_pain ted
_control s
_Schul ter
_chem ist
-G er
_adv ance
_inform ed
-E n
_Länd ern.
_success fully
_tief greif
_enc ry
_mathemat ician
_falsch ,
_Kü sten
_cover ing
_prop osed
_Eben en
_erfolgreich e
_wid ers
_wid ely
_Maß nahmen
_flow s
_Sol aren
_Kat ze
_"C an
_bab y.
_concept s
_bacter ia,
_Bewusstsein s
_Auswirk ung
_intelligen ce,
_collabor ative
_jump ed
_gewalt ige
sta aten
_Interess anter
_town ,
_gewöhn lich
_überrasch end
_report s
_sus p
_isol ated
_Band breite
_kommuniz ieren.
_myster y
_Altern ativen
_Strateg ien
_vorbe i.
_gather ed
_entwer fen,
_Nerven zellen
_Durchschnitt s
_analy ze
_Keny a,
_aufb auen
_verlang sam
_Must er,
_entscheiden de
_wachs en.
_aufzub auen,
_Kleid ung
_mechanism s
_sac red
_autonom ous
_D. C.
_vieler lei
_Febru ar
_Luf t.
_Magaz in
osex ual
_forgot ten
_Dere k
_Schäd el
_gegründ et
_Wurz eln
_Zer o
_Vorhers agen
_städt ischen
_nex t.
_Dec ember
wh ile,
_elder ly
_condu cted
_Zufrieden heit
_whatso ever
_ub iqu
_Rena iss
_instrum ents
_Keit h
_categ ory
_ ]
w oll
r um,
d urch
d own
e u
z e.
m ärk
n eten
T he
g ünst
o 's
k ward
p .
b t.
s ;
ä ck
- per
- gener
O ,
_d umb
_d opam
_s ank
ie gen.
es c
es e.
re hens
_h arten
st eine
_in ex
_n ose
_n umer
_S her
is men
_c erem
_p ile
_k osm
us sten
el ess,
_D auer
_M ain
_B ow
_E i
_G h
sch rank
ol itik
_U sh
_re ver
_un able
_on go
_P andem
_was hing
_L ücke
_se ht
_H ubble
_al ign
de hn
_N ich
_N SA
ag og
_all m
_for t.
_ab use
_ab zusch
_auf recht
_do ors
_are as,
_J etzt,
_ne at
_he aven
_pro l
_com e,
_sp az
_ge ek
be wusstsein
_It s
_con vey
och em
_Be ck
_Pro be
_An zeichen
_vor schlag
_en l
_te et
_work ing,
_per mission
_here in
anz ,
_Ein fl
_bet r
_ges pe
_cl ass.
_Ch irur
_comp os
zu el
ile mm
sp ür
wer f
_res il
_res ult.
ied ,
_"W issen
_hum an,
_20 .000
_bef rag
_gew onnen.
ges ehen
_being s,
_ins ist
_gu ard
_gu ide
_app le
teil t.
_Ide al
_rem ix
_Grund lagen
-S ahar
_ke hr
_Kl ass
_Ph .D.
_Aut o,
_mal aria
_gegen wärt
_30 ,000
_run ,
_TED x
_Schw ellen
_Tr änen
_Univers um,
_Ste wart
_sk y,
_read ,
_At t
_dre imal
_pict ures,
_Raum schiff
fall ,
_Am ster
_att it
-M asch
_Mein er
_teach ers,
_head ed
tes t,
_Spiel ,
_18 5
_fol gen,
_val ue,
_interesting ly,
_vir al
_individ uelle
_Qu ant
_sens es
_biolog isch
_treat ment,
_denken :
_connect s
_Gebä ud
_199 8
_großart iger
_Di am
_Herz inf
-m aking
_neu lich
_film .
_fing er,
_Städ te,
_Masch ine.
_Nat ash
_HIV .
_genet ically
_Part y
_Material ,
_Richt ung.
_powerful ,
_inspir ieren
_South ern
_Mittel ,
_scre en,
_Vort räge
_pres erv
_leb t.
_aw kward
gem acht
_Mathemat iker
_Austral ia
_strateg ies
_dramat isch
_particip ants
_Ed ward
_geschaff t.
_Hin weise
_intelligen te
_Zeug ,
_lin es,
_unmöglich .
_webs ite,
_himself .
_cat astroph
_respon se.
_challen ge,
_Angel es,
_erwähn t
_Californ ia.
_berühm ten
_apply ing
_demonstr ate
_effekt iver
_Wichtig keit
_wunderv ollen
_bomb ard
_unver meid
_mid -
_intens ive
_cooper ation
_Szen e
_magn ific
_erfind en
_wünsch te,
_volunte ers
_ups ide
problem e
_erweit ern
_Elektron en
_Umständ en
_verdien en.
_traur ig
_refuge e
_Flag ge
_Tes z
_Völk ermord
_Bron x
_phr ase
_Dep artment
_suic ide
_Katastrop he
_ath le
_Rett ungs
_Hilfs mittel
_beantwort en.
_subs id
_Symmet rie
_bizar re
_Roy al
_recomm end
_Symb ole
_Prax is
_Benz in
ownt own
_Ign or
_bzw .
_spekt akul
_Ush ahid
r ische
r isik
h ole
z te
l van
. m.
k ter
k ons
b te
- out
- und
v ille
ö k
3 00
O .
en "
en erg
_t or
_t ast
_t one
_t est,
ch te,
_d .
_s ourc
_th ose,
re ten.
st el
_o l
_g if
_f ought
_in hab
_S ame
_S B:
_S imul
_A pfel
_to ss
_l ö
_W ut
_W elle
ed s
_z ivil
ur r
_T ot
_T we
_M acht.
em pl
_B h
_B in
_zu stimm
_wir ft
_an k
ach us
ol as
_re cess
_F DA
ge iz
_L ind
_L ärm
_Th ings
_H op
_al ive,
_N one
ag ent
_Sie ben
_R atten
_war ri
_uns :
_he ft
_mo chte
ad ed
_Z igaret
_O klah
_sp in
_sh ipping
ik alen
_Sch all
_Er ste
_Er forschung
_Er laubnis
_diese .
_tr itt
_tr ends
_Be ing
_out er
_An erkennung
ick t,
etz ten
_mach ten,
_Un glück
_te ch
_am pl
_You 'd
_Sp enden
inn en,
_viel en,
ne gie
_somet imes,
_They 'll
_beg r
_beg ren
ake te
_En gel
_cont amin
_lie fer
_Aus nahme
_zwei .
_em bod
_Auf klär
ek t,
_"I st
_"I 've
_geb oren,
att oo
_car ing
ren ce
teil en,
_learn ing,
_Geh alt
_Land wirt
_Me ist
_sec ure
_Gen ome
_belie ves
_brain s.
_werden. "
_cons ist
_cons istent
_glaub te
_erst mals
les s.
arch ie
_commun ities.
_Kon tex
_high ,
_einmal .
_Gehirn s.
_De te
_8 6
_stand .
_Stud ierenden
_Lebens qualität
zeit .
_Ste ine
_sk etch
rupp e
row ing
_beginn e
sy lvan
fall .
_aut ism
_schl afen
_half .
_Plan ung
_Vers orgung
_group s,
_global es
_„ A
_"N ein
_nenn e.
_Form ,
_sicher er
_kill er
_Par as
_rad iation
_Fähigkeit en,
_object s.
_Proz ess.
-m on
_clear .
_along .
fläch en
_ähn lich.
_somebody 's
_film s
_eg o
_Bereich ,
_leader s.
_Fahr zeuge
_clos est
_Wahl .
_present .
_strong ly
_kennen lern
_flie gen,
_Vir t
_erstaun lich.
_obs ess
_nachdenk t,
_jedoch ,
sm ann
_ann ual
_Bedeut ung.
_Projek t.
_Firm en,
_schreib e
_prop osition
jen igen,
_flo or,
_electric ity.
_wissenschaft lich
_attack s
_Sol che
yr us
_fire ,
_compass ion.
_Wohl tät
_period ,
_jen e,
_behand eln,
_evol ve
_einzig e,
_secur ity.
_dank bar
_bild et
_Hum or
_inf iziert
_verwand eln.
_organiz ation,
_häuf iger
_Kong o
größ e
_Phil ip
_erhö hen
punk t.
_Erfind er
_port ion
_port rait
_Del ph
_amb ition
_straight forward
_Jul ian
_resist ance
_consequen ce
_effort s
_Flie ge
_profound ly
_vermittel n,
_origin ally
_verletz t
_flex ible
_interag ieren.
_prep are
_analy t
_zent ral
_ausgest at
trä ge
_shr ink
_Fant ast
_klass ische
_Jahrhunder t,
_climb ing
kam pf
_ups et
_replic ate
_industrie lle
_männ liche
_Toilet ten
_unterscheid en.
_tempor ary
-Un tern
_immen se
_Ungleich heit
_datab ase
_Penn sylvan
_gekauf t
_rou te
_Misch ung
_Überwach ung
leucht ung
_schol ars
_geänder t.
_Immun system
_Kohlendiox id
_tenden cy
_Wohlbe finden
_sicherst ellen,
-min ute
_Hosp ital
_Dopp el
_Dal ai
_halluc in
_Kindersterb lichkeit
_unlik ely
-Sahar an
u ben
i ated
c ons
z ieren
m ale
m esser
n er,
M .
l ies
l ing,
g ,
k e,
- tra
y an
er ie
_t ube
ch ten,
_w ired
_w inning
_w odurch
_m and
_b ust
_b ore
_b oss
_b oun
ar es
_I diot
ing en.
_n ice,
is en.
_p as
_die d,
_A gr
om be
ig te,
_W att
_k art
_z ogen
_D yl
_M om
_M RT
em .
ic ed
ic ial
ra hl
_B uff
_G ig
_G ift
_G öt
se k
_re ducing
_re think
_F ree
_K ell
_ver we
_P ocken
im ulation
im ittel
_H ot
_st ro
_al b
_er geben
_er stellen.
_N ag
_N ad
um s,
end em
_R ight.
_r ang
_V e
_mit hilfe
ff iti
_C ,
_le id,
_he ben
kt or,
_sp erm
_ge olog
_ex cess
_sh am
_about ?
_ch unk
be wusst
og en.
_som ed
_über zeugen
_my st
_dem ograph
_da wn
_da zwischen
ear s
_2 .000
y, "
_Pro band
_Ar ctic
ies en.
_An onym
_vor :
_vor wärts
_ent halten
_ent ering
_up ?
if ers
_kann ?
_act ion,
_Un iver
_gen aus
_Re pr
_don 't,
äch st,
_ste pped
_ihr .
_bes ucht
_bes orgt
_lo ves
_kon st
ungs fähigkeit
_off ering
_Man agement
_real m
_pass ive
geb racht.
_hin ein.
_Ges ich
_sol ches
_20 3
ian ce
_Aus land
_Aus sehen
_verb ringen.
oc c
_fact .
_stud iert
_stud ent,
_lang e,
_end less
_klein ere
_Fl ick
_Fl aschen
_own ed
_own ership
_zeig t.
_Grund stück
_Nach mittag
over ,
-S e
_still .
_imag ine.
_Reg ul
_exp ansion
_sl ides
_million .
_found ,
ym n
ym met
iven ess
richt ungen
_mean ing.
_Schw äch
_Schw eine
led .
_gener al,
_care er,
_cell ular
_sk in.
_Fr ance
_anim al.
_War ,
vers org
_Schl ä
_hör te,
_vier ten
_walk .
_nutz ten
_Freund e.
_Wor te,
_Ger ade
stand e
_leg ten
_18 8
quen zen
esent liche
ron en
cke .
_ser ving
_schön er
_remember ing
_Not wend
_Gra ph
_langu ages.
_loc om
_biolog ists
_patient ,
_mar g
_Bed enken
_speak ,
_gemein schaft
_sex y
_mess age,
_dich ,
_side walk
_arch ite
_mother .
_Kunst stoff
_ries iger
_Beweg ung,
_del ic
_erf re
loss en,
_201 1,
_Herausforder ung.
_fantast isch.
_Car negie
_mole kular
_present ation
_Park s
_Web .
_photograph ed
_virt uelle
_Jed och
_fort sch
_impact .
_Mich ig
-year-old s
_unf old
_unf air
_Maß e
_neben bei
_unterstütz t
_Aben teuer
_cop yright
_schick en,
_offensicht lich,
_Tür ke
_position .
_capital ism
_Bildung ssystem
_strateg ic
_zerstör en
-N ull
_popul ations
_finanz iell
_decision s.
_emotion alen
_sele ction
_reduz ieren.
_Ball on
_gewöhn liche
_Sam uel
_Gal ap
_Ak adem
_König in
_code .
_Dre h
_Atlant ic
_Pil z
_apart ment
_teen age
_Journal isten
_adop ted
_beeinfluss en.
_Hal b
_Keny a
_atom ic
_disorder s
_liv ing,
_Weiß en
_angew and
_Elektron ik
flie gen
_chann el
_verhind ern,
_dolph ins
_mam mals
_Jeden falls
_appar ent
_Wü sten
_Flüss igkeit
_passen ger
_komplet te
_Industr ial
_wra p
_Roh stoff
_brut al
emb ly
_Benutz er
_Hon ig
_drauß en,
_europä ischen
_Angeb ot
_bicyc le
_Squ are
_Snow den
_Diabet es
_Anre iz
_diox ide
_X- ray
_Ausrüst ung
_Glüh b
_beträ gt
_Pitts burg
_Vene zuel
_ …
_ enden
c ro
c ies,
l ing.
l amp
v ille,
ö h
6 0
in formation
_w ise
_w att
es tell
_b ure
_b old
_b oring
_h ält.
_e tern
ar fen
_n ein
_S i
le m
le ben.
_p ein
_p ace
te en
_A uß
_A M:
_to t.
_v en
_and auer
ig er.
_l ess,
_W ende
_be en,
_T ry
_T aten
_D ichter
_M ord
_M igr
_B il
_B ul
ach läss
ier ender
_re ass
_re iste
_re putation
_on ce.
_L iz
_L ittle
_st om
_Sie :
and ers
_j ur
_j ug
_R og
_R ather
_r ufen
_auf nehmen
th ese
_J ur
_sch uf
_sch üttel
ul ated
über greif
_at m
_St olz
_ge pl
_ch est
og en,
her z
_de cept
_de prim
men gen
ink ommen
ate ver
iss en,
_vor les
orm al
_her k
if l
_Ver öffentlich
_gen es.
_gen ießen
ob s
_Ge fahren
_Te e
rie d.
_Sp recher
_every body,
_pr ices
_Ein blick
_ag ent
igh ted
_Wh it
sel be
_tra f,
_Gesch ichten.
_bes tell
_ra us.
_spe ed,
ktion en
_right s,
_right -hand
_19 30
_Se lektion
_Vor bild
_wieder ver
tel n
ges ell
_problem at
uss ani:
_end g
_end ing
_gesch ehen.
_hal t
_car b
_gu il
_bit te.
_Fl u
_Fre it
_Fre quenz
_schw imm
_Zu hör
_wichtig er,
_Kl ar
_verl oren,
_tre e.
_small .
_small est
_funktion ierte
_7 ,
_cent er.
_second s.
_gener ation,
_End es
_cap ita
_As ia
vers icht
_dra ht
_schl icht
_Inter f
_teach er,
oot s
_wenig sten
_Vers agen
_' W
_Eur o
_seem ingly
_Haus e,
_val id
_remember ed
_ey e.
zeich nung
_suc ce
_girl s,
_pain ,
_Bere it
_Film em
_link s,
_cho ices.
_erh ielten
_Ur heber
_struct ural
_Gener ation,
_dep art
_centur ies
_arm .
_Durch bruch
_schließ lich,
_Kor tex
_event ,
_Kultur .
_Far b
_mult ip
com .
_explain ing
_grand par
_ansch au
_occ as
_post ed
_pract ice,
_Unterschied ,
_Typ ,
_dark ,
haf t,
yl inder
_Web ,
_persön licher
_Neur on
_ann oy
_Straß e,
_bar rier
_support ing
_ed itor
_revolution ,
_dead ,
_Ha are
jen igen
_schlecht es
_Arm strong
_fa ile
_road s
_tö d
_vill ages
_pow ers
_verkauf t.
_sudden ly,
_beschäft igen,
_Schü lern
_ap olog
_rein vent
_Tür en
_sleep ,
_hing ehen
_TV .
_TV ,
_gas es
_symbol s
_freedom .
_bur st
_cheap er
_Fakt oren
_town .
_reduz iert
_catch ing
_div or
_organization s,
_üb ereinstimm
_non- zero
_forth ,
_leist en,
_Pakist an,
_Kore an
_intens iv
_2, 5
_beeinflusst .
_satell ites
_Kop ie
_Untersuch ungen
_bemerkens wert
_religi öse
_Global isierung
_Büch ern
_Einfach heit
mel zen
_weib lichen
_Must er.
_Kaff e
_gere cht
_Frem den
_drag on
_purs uit
_Mass achus
_fab ulous
_Eng agement
_männ lichen
_enem y
_Ill usion
_Rechn er
_öffn en,
_Luf t,
_grad ually
_Sy d
_Bod en.
_Überrasch ung
_appar ently
_Schauspiel er
_Dire ktor
_Belohn ung
_hem isph
_ere ct
_Brü der
_Power P
_Katastrop hen
_Philosoph ie
_teenag ers
_beige bracht
_Gi ussani:
_9/1 1
_Nerv ensystem
_prepar ing
_unfortun ately
_Reicht um
_Lux us
_fulf ill
_uncomfort able
-Amer ican
-Ind ustrie
_außerord entlich
_helic opter
_exped ition
_Astero iden
_ubiqu it
_ ?
_ +
_ =
r ific
h änd
t tern
l ung,
l in,
k ap
p ower
b ell
b ul
- day
- amerikan
v elt
in a.
_t ent
_t ier
ch ar
_a ward
_a the
_d ane
_w ings
_i ce.
an lagen
_b ahn
st ö
_o ct
_g ede
ing s,
_S ätze
is ions
_c ree
_c ock
_p ir
_p rie
_p ale
_die s.
_A T
_ein setzen,
al ph
_l ü
_W ale
_W est,
_W üst
_W ahnsinn
ur teilt
ent er
_T asch
_D od
_D ave
ic ill
ra el
_B uck
_E inn
_wir :
il f
il en,
_G am
sch ra
sch neid
_F G:
_K alk
_ver hand
_ver deut
_un aus
_un its
_un voll
_P ick
_P ix
_L ist
_L isten
_L KW
_se en,
_H ud
_H yp
_H i.
_j ew
uch t.
ann er
_R on
_R ap
_R ollen
_V eg
ell es
_li st.
_J azz
_C N
_C RI
_he al
_Z ellen.
_sind :
_St und
_St urm
_fr es
_not ?
ah m
ah ll
_über quer
_Sch au
_It 'll
_Er ziehung
_from ?
ien ce.
iss en.
_An alys
_Y R:
_up load
_Al most
_gen ommen,
_gen ommen.
_dar gestellt
_dar stellen.
_will k
_am .
_how ,
_really .
_gl imp
anz ug
act ive
_say ?
_Ein führung
_ag es
auf trag
_bra ve
_viel mals.
_bei .
_groß en,
_part ies
_bes ides
_call ed,
_tun nel
_Or le
_off ers
_ra ce.
_Ne un
iß en
_dr ivers
_Se b
_vers ich
_star ing
_cont ra
_cont ent.
_Vor bereit
_bef ol
_gew ähr
_komm enden
_sm art,
ire .
_Um lauf
_build s
_dec lin
_einz ub
sam er
_genau .
_Nach t,
_gleich .
_rec l
pro jek
änder ung
_fin ance
_Reg eln,
_besch rieb
_zusammen zu
_Br ücken
_Hand els
_De f
_Schw imm
_reg ister
_sing en
_As ian
_art ist,
_Dank eschön
_supp ress
_fas ter,
_fas ter.
_Schl ange
_erk annt,
_besser er
-M an
_cr ush
_dist ra
setz t,
-A b
_Gew inner
wend en,
_Gemein samkeit
denk en,
_six th
ateg orie
_wahrscheinlich ,
_happened ?
_self .
_Son nt
_Selbst ,
_Bed auern
_Forsch ung,
_ident ity,
_normal er
_Gegen stände
_"E in
_Lös ung,
_Kunst werk
_erklär t,
_model s,
_imm ers
_Kor rupt
_market s.
_impro ved
_low est
-l ook
_societ ies.
_break f
_entfern en
_expect ing
_perform ance.
_post er
_Zug riff
_Publik um,
_architect ure.
haf ter
_respons e,
_prin cip
_transform ing
spro z
_Mo dern
_bewusst .
_impact s
_fail ing
_Nord kore
_includ ed
_Tw enty
ified ,
_avail able,
_Familien mitglie
_Blick winkel
_song ,
_verkauf en,
_Kil o
uk le
_lay ers
_Entwicklungs länder
_Bab ies
_Bä umen
_nuc le
_Bakter ien,
_Sex ual
_reag ieren,
_standard s
_hospital ,
_Wohn ung
-Pro jekt
_2000 .
_princi pl
_remain ed
_inf ant
_schütz en,
_board ,
_Interess ante
_keiner lei
_surfac es
_tag s
_wachsen de
_Frieden s
_Kol onie
_German y
_beschreib t
_Tas che
_weap on
_berühr t
_Kore a,
_Feuer wehr
_electron ics
_Post er
_shock ed
_besitz en.
_musc les
_religi ös
_Bef ehl
pflanz en
_kümm ern.
_erwarte t,
_Kä fer
_eröff net
_sev en,
_Amerik a,
_Ven us
_Irgend wie
_kap ut
_Fel sen
_eleph ant
_fortun ate
_öffn en.
_sorg fältig
_vess els
gerä te
_Temp o
_klin ische
_würd est
_Erkrank ungen
_Ordn ung,
_übers etzt
achs en.
_Inte gr
_konfront iert
_philosop hy
_bem ü
_Nic ole
_desper ately
_threaten ed
_tatsäch liche
_Beute l
_Tib et
_Brookly n
_chocol ate
_Palest in
_HIV/A IDS
_Anh änger
_archite kton
_CRI SP
r est
r ast
r ats
i ktion
c ode
c ence
t ausend
a i,
l ament
l ike
o op
o der
k ürz
p ost
ä ug
ö ger
j o
6 00
_t auchen
_a s,
_a chten
_w ahnsinn
_s ize.
on y.
an o
_h ipp
_e ight,
_e uren
_g le
or ben.
ar ies.
_n aked
_S orr
is y
_c able
_p atch
te ile,
_to oth
_v ocal
ir ty
_be zeichnen
_T iger
_D omin
_M ig
_M id
_E ar
_E duc
_wh ite,
ow !
_an gest
_an genommen
lich sten
sch uss
ol ith
se ll
_F ed
_K iste
_ver urteil
_P y
im pf
_L uc
_And erer
_H üt
_H of
_j unk
ck ing
uch ,
_" g
_for b
_for ce,
_R ass
_ab spiel
_r icher
_auf rech
ist ic.
ul ation.
_C els
ab druck
_O ld
_sp ringen
pp en
_für chte
_ge glaub
iv a
_um fass
_or th
_wer fen,
_wer fen.
_Sch lecht
_one ?
_Be obach
_pl an,
iz eit
iz ieren
iz ont
hl en.
_Ver trag
_sa il
_gen u
_gen om
olog ie.
ru kt
ble iben
_way ?
_qu ar
_Sp ur
_Sp itzen
_Sp rechen
_Ein lad
_now ad
_happ ier
_Ch ap
_mö gen.
_over n
wer b
üss en
_bes t.
_tun a
_kon kre
_res ident
_ra ce,
_ph osphor
_ac ros
_ac oust
ram e
_Se ch
_zw ölf
_ide olog
_bef inden,
_nat ive
_Aus bild
_5 3
_verb raucht
ism en,
_being s.
_wel com
ek t.
_Ind ex
_nie .
_geb racht,
_klein ,
_gra uen
gel assen
_Her kunft
rat e,
_design ers,
_For ce
_kl are
_Zu ck
_6 ,000
_such ten
fol gen
_gel ben
_gel ieb
_Ph ilosop
_verl äuf
_chang es,
_form ing
_organ isiert
_De an
_7 4
_möglich st
_point s.
itu de.
_read .
_reg ional
_Fr anz
_Mon ate,
_Afric ans
app e
_land ete
kun st
_Mar g
_Mar ia
_publ ic.
_ass ozi
_sah .
cher ch
_Pol ar
_gre ifen
_Kre bs,
_leg s,
_bestimm t,
_On kel
_ear liest
_Design .
_building s.
_12 5
wend ig
_je gliche
_mil es.
_Untern ehmen.
_gemacht ?
_Ber at
_"M ein
_girl s.
_kill s
_cost .
_product ,
_Mäd chen.
_test en.
_erl ern
_Lehr er,
_psych opath
_individual s.
_erh iel
_Vie h
_innov ativ
_großart iges
_Ur sprün
_euch ,
_dir t
osph ere
enh agen
_Them a,
_Them a.
_colle ge.
_fest gestellt,
_Arten viel
_class ical
-f our
_Veränder ung.
_music ian
_leader s,
_Hö hen
_Hö hle
_desc ription
_Gleich ung
_John s
_stay s
_stay ing
_Kü che
arz t
_tw ist
bre chen.
_def ens
_arr ive
_prop ag
_entst ehen.
_engag ement
_geze igt.
_skill s,
_poll in
_Stre ben
_Bürger krieg
_faszin ierend
_kontroll iert
_"We 're
_Kan al
abet h
_Ke pl
_Wohn zimmer
-Pro gramm
_complic ated.
_saf e,
_pleas e.
_sil ent
_finanz ielle
_nerv ös
_Kons erv
_clin ic
_programm ing
_prec ise
_decis ion.
_peace ful
gere cht
_Geheim nisse
kr ö
_sele cted
_Gebie t,
_web ,
_Sonn e.
_Roll e.
_durchschnitt lich
_surger y,
_Rand e
_verfol gen.
_manip ulate
_Pre ise
_besitz en,
_trouble .
_"U n
_Großbritann ien,
_wiederhol t
_ce iling
_ausz ur
_Kal orien
_Büch er,
_Eing ang
_verschw unden.
_Tur k
_Umständ e
oler a
_ax is
_pal m
_Besitz er
_fördern ,
_reef s
_Bal ance
_Erstens :
_cloth es
_Alzheim er
_lever age
_exampl es,
_traum at
_lect ure
_sty le
_Stör ungen
_smok ing
_ath let
_Mäus e
_diam ond
_Kug el
_bedro ht
_buil t.
_creativ ity.
_explo it
_unvor stell
_triv ial
_Köpf en
_muslim ischen
_Kooper ation
_Kapaz ität
_Frühl ing
_intercon nected
_Rak eten
_Abhäng igkeit
_Besond ers
_civ ic
_Interessanter weise
_ 0
_ «
w ise,
d ien
e ber
c ase
h ir
h äus
g ien
I :
p ap
ü re
- bl
- level
y al
/ &gt;
en ing
en ce,
in ely
_w esentlichen
_s ap
at a
on ing
on sten
_m ice
an al
_b ed.
_e ars
_g ramm
_f ange
_in ches
_in hib
_n ob
_n imm
_c ir
_c af
_c oc
_A dr
_to wer
ir ts
_ein einhalb
_l ese
_l ob
_l ions
_l ingu
_W ord
_be ing.
_be ating
_be urteil
_be iget
ut s
_das ?"
_T y
_T sch
_T oy
_T ja,
et t,
_D op
_D ate
_M i
_M T
_M A
_M ist
_M ole
_M inder
_B oo
_B ah
_B art
_E ast,
_zu geben,
_G or
ber ühr
ach tet
_re cherch
_F ig
_F angen
_K ids
_ver anst
_P ack
_P rie
_P ubl
_L änge
_H ang
_st ad
_st able
and er.
end ent
_R abb
_ab us
_auf ze
_auf genommen.
_V ak
ill ,
_li ver
aus chen.
_go al.
_le gend
_le uchten
_O P
_pro ved
_sp at
_St ring
_St irn
_ge prä
_hat :
_ch ances
_über qu
_des erv
_Sch uh
_pe cul
_pe ace.
_de bt
_de fense
tw ork
_ar twork
_our s
_out do
_An atom
_Y es
ick te
_ent schuld
_Ver br
_act ors
_Un til
_nur ses
_Re ally
_Re cycl
_Ge omet
_Te ppich
ste te
_Sp rit
_Sp uren
_inter ior
_could ,
ne te,
form ance
_sc ratch
_ob tain
_Ch ile
_comp ete
_comp osition
_3 :
_3 .000
fü llen
_lo s,
_ph antom
_bis lang
_she er
_she et
gr en
_"W h
_dr über
_dr unk
_hin ab
_Se a
_zw ar,
_cont ributed
schaft s
_bek am,
_Auf lösung
_wel come
_stud y.
_human ity,
_big ger.
_gesch l
_Um frage
_gra vit
ivers ität
_child 's
_trans por
_person ality
_creat ures.
_All ein
_Bild ung.
pro jekt
_went ,
_br an
_br ib
_glaub te,
_glaub ten,
_mon at
_par am
_ans onsten
_mean .
_mag .
_lik el
_Univers ity,
_End e,
_führ enden
_dre w
_As ia.
up .
_Dank !
_land wirtschaft
_heiß t.
_Min i
_Inter viewer
_stop ,
_mov ing.
_dist in
_dist ribute
_dist rict
_Ob dach
_Woch en,
_government s,
_Buch .
_ret reat
_col ored
_Engl and.
_wonder ing,
_rest lichen
_air craft
_vir us.
ift y
_loc ated
_Ze al
_aller er
_Gesundheit .
_discover ing
_spiel t.
hör t
_cost ,
_pain .
ane ously
_product ivity
_Fot ogra
_ü bere
_Em issionen
_Nicht -Null
_test en,
_hoff en
_Lehr ern
_Gebä udes
zust and
_überall ,
_material .
_innov ations
_object .
_view s
_neur ons.
enh aus
_God 's
_serv ice,
_bod ies,
_engine ered
_Universum .
_activ ity,
_11 ,
_relationship s,
oun t.
_% .
_impro ving
_Ziel .
_record .
_201 1
_societ ies,
_wonderful .
_difficult y
_pract ice.
_13 .
_Ant rieb
_requ est
_ged re
_prin ted
_Mo MA
_hervor ruf
_Programm ,
_Red en
_einge führt
_Umgeb ung,
_Dav on
_function .
trag ung
aj a
_describ es
_ball s
_path .
abl es.
_fert ig.
_self- inter
ID S.
_Könn ten
_pur ple
_Aben dessen
_Vortrag s
_verrück t,
_Zent imeter
_react ions
_schrieb :
_sleep ing
_kontroll ieren,
_mis st
_Tro pfen
_verstand en.
_verurs acht.
_Any body
_geschaff en.
-Z eit
_Isra el,
_Armut ,
_Pal äst
_secur ity,
_terror ists
_depress ion,
_sitz en.
_signific antly
_Gu ard
_afford able
_bur den
_kre ieren,
_expens ive,
_Vertra uens
_Second ly,
_Erfind ungen
_Oper ationen
_Gebie ten
_Lab or,
_earl ier.
_anywhere .
_AIDS ,
_parent s.
_vari ation
_schlimm ste
_Sonn e,
_Tal ent
_foss ilen
_hinzu .
_durchge führt,
_Jul i
_theor ies
_concl ude
_unabhäng ige
_Ess en.
_Schwe fel
_auszu prob
_akzept ieren
_speech ,
_Gest alt
_Kein er
_Krie ge
_scen ario
_Ko ordin
_Olymp ic
isier ung,
_aufzub auen.
_sculpt ure
_kap utt
_seed s
_unsicht bar
_industrie llen
_Count y
_enable d
_Egypt ian
_Sud den
_Autor ität
_appropr i
_Mel od
_spont an
_Offen heit
_gehol fen
_neurosc ience
_kümmer t
_ausged rück
_vermeid en.
_circumst ances
_sect or,
_&lt;br /&gt;
-of -the
_sorr y.
_aftern oon,
_mosquit o
_anget rieben
_Spezie s,
_Dynam ik
oli ath
_Arist otel
_obl ig
_rab b
_conven ient
PT CH
_Nächst es
ernov a
_Antar ctic
_Anges icht
_Arzne imittel
_Einkauf s
_Urkn all
_Prem ier
_Tenden z
_jahre lang
_zutief st
_Tast atur
_endanger ed
_bure auc
_CRISP R
r ess.
i ast
h ent
h ern
n ik
l ,
l am,
k oll
S ,
b and,
A C
- ed
- dr
f il
f ield
y b
er isch
in nt
_t at.
_d ent
_d il
_d rit
_d ating
_s keleton
_th read
ie ber
_m ild
as er
_h ub
it ate
it ative
_o v
ich ,
_f ancy
_in fer
_S ue
le ment
_p ige
_A qu
_A ction
al tete
_W ater
_W atch
_k ognitive
_z one
us ste
el ie
_y es
_D ichte
ra its
_B ook
_wh en,
_wir ken
_an tenn
id er.
ge ist
_K red
_ich ?
_P anz
_L ak
_L aur
ct ive
ay s,
_st ap
_st amp
_st unt
and a.
ck t,
uch te
_R ic
_R IS
_ab h
_r iot
_V oy
_im pl
enn t.
ill .
ess or
_J et
_J ay
_sch ufen
ist ischer
ul ating
_C I
_C reat
_as ide
_wor m
_com ic
ers ?
ant en.
iv ,
_or phan
_dem ographic
qu ellen
_ma pping
_Be am
_Be wusst
_Ar kt
_An nahme,
ick .
_vor gesch
_us ed,
if act
_Ver gewalt
_dar in.
_te a
_am ,
he il
_world ."
_ste ad
_ste uern.
_could .
_Ein wohner
_gr ös
_jed ermann
_Wh atever
_beg rü
_comp elling
_tra ge
sp ot
sp art
_bl ess
wer fen
_einfach :
fr on
_Kind ern.
_weil ,
_Or chester
oss en.
_dr innen
_Se curity
_star s.
_zw anzig
_20 30
_5 7
_Auf fassung
_klein eren
_Fl ut
gel d
_rel ation
_wom öglich
rat en,
_Ab u
_design s
_Fre izeit
pro be
_str ict
_können. "
_200 2
_Unter drück
-S p
_wichtig es
_fin e,
_Gl aube
_glaub ten
_imag ing
_imag ery
_found .
_kam en.
_Kon vers
_form en.
_Chin as
_interess ieren,
_run n
_run ter.
_TED -V
_9 6
_Stud ien,
lag e,
_fre ue
_dre hen.
_War en
_Weg e,
_abs or
_dra uss
_schaff te
_walk ,
rib e
_half way
_Dann y
_co inc
_Spiel s
_cur ve
äus e
_Wer b
_40 ,000
ühr en.
_Gemein schaft.
_Dar aus
_hom et
_Produ k
_girl friend
_mar vel
_Bes ten
_dev ices,
_ur ge
_Film .
_bed ien
_appro xim
_neu .
_Bilder .
_comput ational
üt ze
_arm ed
_complex ity.
_wind ,
_meas ures
_deep est
_meet ings
_16 ,
_music ians
_Char akt
_planet s,
_201 0.
_Kle ider
umm ern
_bleib t.
augh ter
sicht s
_reach es
_listen ed
_special ized
_wait ,
_Struktur ,
_bemerk en
_lost .
_kont inu
_fort une
_Hoff entlich
_bew und
_Punk ten
_Wo hin
_North ern
_Lehrer in
_Bar ack
_Eben so
_Frei heit,
ächt igen
_Besch reibung
_farm ing
_hinaus .
_optim istic
_schrieb ,
_verh indern
_imagin ation.
_dro wn
_except ion
_Pflanz en,
_benötig en,
use el
_ä ußer
_bedeut sam
_direction ,
recht s
_Any one
_kompliz ierter
_Eff ekte
_intelligen ce.
_Zeug .
_remain ing
_Col or
_merk en
_freedom ,
_nachzudenk en
_Niger ian
_übrigen s,
_essen ce
_shot .
_Gerä t,
_exh aust
_high- tech
_aufre gende
lad en,
_Individ uum
_Chicag o,
_laut er
_remind s
_verfol gen,
_"V er
_Nam en.
_explor ation
_kommuniz ieren,
_einzigart igen
_trag ic
_painting s
nahm e.
_Pra kt
_Blog s
_aufb auen,
_involv ed.
_bull et
_gentle man
_Ach ill
_summ ar
_Aufgab e.
_Konzep t,
_Sens oren
_Mö bel
_sac rific
_incent ive
_incent ives
_dolph in
_cosm ic
krank heiten
_jähr lich
_estim ated
_contem pl
_Flücht ling
_Bem üh
_elimin ate
_Mittag essen
_deta iled
_Expl osion
_regard less
_Imp uls
_Bestand teil
_Canad a,
_legit im
beding ungen
imb ab
_Allgemein en
_subt le
_Shang ha
_staat lichen
_Hindern isse
_lifesty le
_obes ity
_antwortete :
_mächt ige
_earthqu ake
_guarante e
_Stick stoff
_furnit ure
_grie ch
gebä ude
_Thun fisch
_Analog ie
_Soc iety
_Moore 's
_sugges ted
_genere ll
_Quantenmechan ik
_DAR PA
_regist r
_LH C
_Exped ition
_excell ent
_begren zt
_likel ihood
u j
r ome
d est
c ript
m ess
a way
g ase
g ypt
k urs
k ontroll
b ow
b orn
f old
ö mm
8 00
er z
_t il
_w inn
_s alt
on anz
an e.
re aktion
_b ist,
_h assen
it is
it ären
_g orge
ou t.
_f ool
_f its
_in ch
_I M
_I re
_n ice.
_S in
le ute
_A ur
_A K:
_ein en,
al in
_be wohn
_be half
el en
_T a
_T rop
_D ür
_D oll
_M ang
_M ai
_M S:
ra k
_B a
_B ass
_B ible
hr t,
_G ro
_G az
_an steck
se iten
_re icher
_F ass
_F inden
_K A:
_K öpfe
_P ur
_P ath
_H arm
_st ieß
_N ik
_N av
_nicht :
end et.
_R us
_R uh
_R L:
_r uss
_auf zus
est iz
_C row
_C ape
_le ak
_le hren
au ,
_he 'll
_he ilen
ad o
_O ak
_sind ;
_ge fahren
_ge führt,
_ge gangen.
_sh out
iv ity,
be is
art iges
_könn e
_Sch eit
ang .
_Er weit
ap ,
_Pro gn
_Pro test
_ent sprechen
_her oes
_us ed.
_Al ab
ens p
pl ess
_en velop
_Re zess
_how ever
heit en.
_Sp ut
_every body.
iert en.
_Zeit ungen
_comp aring
_over head
_two -
_weit aus
_lo ving
ungs mittel
aub ere
_real ized,
_dam als,
ath on
_dr um
_dr one
_Se c
_dis plac
_bef ried
ian ische
_Aus gabe
_5 ,
_verb orgen
_pre cious
ges teuer
_comm ission
_bring e
_jetzt ?
ock s
_learn ,
_soc ially
_Land es.
_Me an
for ce
_rec all
_schw eren
_drei .
amm ed
_besch ränk
_Aut o.
_four .
_50 ,
_expl icit
_mean ing,
_mag ic.
_Is land,
_Tr ib
_At ome
_sub ur
_jeder zeit
_bre chen
_natürlich er
_art ifact
vers ion
tre ten.
_Schl üss
_frag ile
_Energ ien
_wenig er.
_typ ischen
_typ ische
_beaut if
_Wer be
_pie ce,
_gar bage
-A merikan
wend en.
_col or.
_gest artet
_nenn e,
_invest ing
_patient 's
_treat ments
_alread y.
_kill ed.
_Fe ier
_Entscheid ungen,
_pot en
_Di kt
_Stell e,
_conf used
_tro cken
_Kn och
_Spe icher
_Krankheit ,
_engine ers,
-f ive
_model s.
_Lin ux
_invol ve
_relationship s.
_Cl oud
_niemand em
_network s.
-b as
_Länd er.
_14 .
_überh aup
_non verb
_tem pt
leg ten
_Fahr t
_entfern ten
_inde penden
_expect ancy
_Jahrhundert s.
_fantast ischen
_Trans plant
_father .
_father 's
wär m
_perfect .
_Tier ,
_Mittel punkt
_condition s,
_Park ,
feren ce
_erstaun lich,
_emer ge
_democ rat
_ausge geben
spro du
_Gef äß
_Bedeut ung,
bre ak
_Geschäft smodell
_Nutz er
_toll er
_pack ed
wass erstoff
_verm ute,
_gefähr liche
_hinaus ,
_Künst ler,
_schick ten
_verrück ten
_beschäft igt,
_bezahl en,
_period .
_größer es
_bacter ial
_müs st
_stick s
_betrachte t.
_Where as
_rid ing
-Z ahl
_Wieder hol
_roll ing
_dynam ics
_Beispiele .
_deliver y
_erschein en,
_burn ed
_continu ing
_immedi ate
_phenomen on.
_Zuf äll
_daugh ters
öt ige
_Zweit en
_Phil ipp
_drop s
_erwähn t,
_Fehl er,
_author ities
_improv ement
_neighborhood s
_Hall uz
_senten ces
_Ital ian
_Pre tty
_Erkennt nisse
_seltsam en
_artic les
_sen ior
_jün ger
_background ,
_Braz il,
_purpose .
_Mod el
_tele ph
_observ ation
_Hal f
_King dom
_zent ralen
_previous ly
_verwir klich
_possibil ities.
_bound aries
_ausgest orben
_pair s
_wachs en,
gab en,
_effizient er
_beib ringen,
_brief ly
_extend ed
_Net work
_advert ising
_pock et
_Merk mal
_Krit ik
_Berechn ung
_langfrist ige
_Komment ar
_init ially
_Zweitens :
_silen ce
_anx iety
frei heit
_Optim ismus
_tatsäch lichen
_transparen cy
_buil t,
_verdamm t
_neugier ig
_Paz ifik
_Mov ember
_Wi -F
_entt äus
straß e
_interse ction
_Reihen folge
_ausreich end
_paraly zed
_Dienstleist ungen
_Schlagze ilen
_Fro sch
_Montere y
_Schreibt isch
_korr ig
_Ardu ino
_contrad ict
_anspr uchs
_jelly fish
_Sond ern
_absen ce
_ongo ing
_TED-V ort
_kontinu ier
w an
w ar
u ad
c ement
m ass
a !
l ösen
E M
g es.
g elt
p ,
b art
b elt
ü m
s et
f u
f a
f unk
P .
Ü ber
_t act
_d imension
_w itz
_s ource,
ie ben
at t,
re ise
_b lieben
_h iding
st ür
st amm
_e urer
or y.
_f ähr
_n immt,
_S wiss
_S AR
_S J:
le iter
_p orn
_p age,
_p essim
te ten,
_A ven
_A the
_v olle
al g
al a,
om ben
_l achen
_W ä
_W ink
_be wert
_be endet
el ess.
_T R:
_that ’s
_D ilemm
_M es
_M yster
_we ight,
ra um,
_B öse
_der er
hr en.
ow er,
_G umm
_G lied
am as
sch en,
ol ar
_F ang
_K ö
_K as
_K ram
_P eps
_L ine
_se w
_Th erm
_er gän
_er fahren.
_N ash
um pf
_j et
_all gegen
_" in
_for ?
_for t,
_R &amp;
_V ill
_sch ed
_war tet
_war ning
_go al,
_C as
ab sichtig
_uns icher
_Z ip
_Z imbab
_O k.
_O EC
_sp ots
_In tel
_St ipend
_ge leb
_ge teilt
_ge füllt
_ge folgt
iv ing.
iv ity.
_dem onst
qu ot
_Er füll
_Er wärmung
iss e,
_them ."
ast r
_ent setz
_up ward
per to
_di ent
_dar ,
_nur se
änd ern
_te ure
_work sh
he ben,
än zer
_durch such
_He ktar
_bl own
_back y
_unter halten
_bu cks
_Ding en.
stell ung.
_years ?
_kle tter
_Man ager
_po or.
_dr ift
_even ing
_star tete
bar ung
_gew orfen
oc amp
_ins ights
_stud ieren.
_sm arter
ichte ten
_"I hr
_gesch ätz
_hal bes
_sim ulation
_Bl ase
_long er.
_Grund .
_Afr ikan
omp an
_after ,
ode lle
_besch eiden
_6 4
_mon ument
_größ er.
_Mal .
ween e
_Med ien,
_disc rimin
_7 3
_Lebens unter
_Pr inz
_famil ies.
_care er.
_cap ability
_natürlich .
_pict ures.
_art ist.
hip s
_health y,
_schaff ten
_under est
_stop s
_ihm .
_gre en,
_told ,
_opp ress
_18 9
_schle cht,
_Sh ir
_reason able
_educ ate
-s ized
_Entwickl ung.
_nenn t,
_move ,
_equ ation
_irgendw as
ash ed
_discover ies
_term ,
_alread y,
_writ ing,
_guy 's
_Fe ucht
_Zahl ,
_hinter her
_80 ern
_program s.
_sow ieso
_opportun ity,
_complex ,
_entdeck ten
_American s,
druck s
_risk .
_solution s,
_event uell
_behind .
sc ar
_univers ities
_send s
_HIV ,
_tem peratur
_moral isch
_perform ed
_fantast isch
_pract ices
lauf en.
_jo int
_Job ,
_surv ive.
haf t.
_neg ativen
yl ac
_Umwelt schutz
oß en.
_Sym ph
_Projek te,
_log ical
_ed it
_wro te,
_prop ose
_komplex er
_proper ly
_self- ass
_wid erst
_flu ctu
_psycholog ische
_suff icient
_neues ten
_Facebook .
_refle cted
_hon est,
_bekam .
_rece iving
_bedeut ende
_Kolle ge
_vac uum
_akt uell
_potential .
_Eg yp
_Franc is
_particip ation
_ice berg
_altern atives
_citiz ens,
_sil ver
_terror ist
_Baby l
prü f
_vern achläss
_affect ing
_respond ed
_la wn
_gewalt tät
_schreck lichen
_doc umen
_enjoy ing
_Stamm es
_successful ,
_doctor s,
abr ik
_Del fin
_gradu ated
_kämpf en,
_amb igu
_überrasch t,
_überle ben,
_Werkzeug e,
arr he
_zähl t
_method s
_err ors
_crow ds
_pan els
_vergleich en,
_Ame ise
_durchge führt.
_Tex as,
_Organisation en,
_expand ing
_außergewöhn lichen
_demand s
_iPh one.
_ast hm
_Standard s
_Mexic o.
-In ter
_Tim es,
_Hilf e.
_belieb igen
_corn er,
_mort al
utt le
_schlimmer ,
_Haw king
_broad cast
_Star b
_volunte er
_36 0
_Irgend w
_ausgeb ild
_Eng ine
_empath y
_Algorith mus
_ton ight
_Febru ary
_Gand h
_Sy ri
_spezif ische
_aggress ive
_crop s
comp ut
_neurosc ient
_kollekt iven
_Sow jet
_telesc ope
_Umw elt,
_Hor izont
_progr ess,
_elektron ische
olit an
_Schach tel
_decre ase
_Acc ording
_conflic t.
_curios ity
_traged y
_Mediz in.
_folgendes :
_ausgewähl t
_angep asst
_underg ra
_verzweif elt
_Chromos om
_hoh em
_Story C
_Sper m
_Kandid aten
_Dist anz
_genoc ide
firm a
_Glet scher
_Behind erung
_Appl aus
_BM W
_Poes ie
_Schwerk raft
_Academ y
_unpreceden ted
_Oklah oma
_begr ünd
_Bul gar
_non-zero -sum
_PowerP oint
_Geomet rie
_Erweit erung
w id
w affen
u per
r ischen
d d
e ur
i 's
z el
t y.
l ung.
l age.
E R
g u
g ert
g ibt,
o ftware
k asten
p ot
b oot
s l
s he
ä ten
y kl
4 00
R NA
en ergie
er "
_t ipp
_a uß
_w ol
_w in.
_w ow,
_s ü
_s isters
on a
an im
re icht
_b amb
_b öse
_h ink
st ate
_g äng
_f er
ar in
_n od
_S T
is es,
_p uls
al teten
ig enden
_W ähr
_W ander
_be er
un st
un ter.
ut r
ur i
el ing
_T at,
_T ausend
_D own
_D ek
_D utch
_M ell
ro ad
ra p
_E ,
_E st
_zu gr
ter y
_G ord
_G ross
_it alien
se x
_re ct
_re vel
_re cht.
_F avor
_F ox
_K off
_K ämpf
_K ategorie
_ver haf
_so fort,
im ,
im es.
_L ange
_H G:
_st ink
_st ake
_st ütz
_al g
_er d
ver y
ag u
_Sie d
ck te
_" ]
_R a
_R ub
_R atte
eh le
_auf get
_auf genommen,
ff er
_sch em
_sch lagen.
_man kind
_war ?
_go ?
_go es.
_sich ?
gen öss
kt u
_pro ven
_com ed
_com ments
_St ufen
_ge we
_fr öh
ik er.
iv ate
be wahr
_Le e
_Le ban
_ar row
_ar bit
ick ing
iz ations
ug u
hl en,
_ent it
_who 'd
_mach ines,
_by .
olog ist
ak ten
_Re cht.
he ben.
_has ,
_bra un
ne ur
_sc ores
_ro se
_any way
_Zeit schrift
_Zeit punkt,
_tun ."
_fü gen
_ra ff
av es
geb racht,
_bef reit
_verb re
acht ung
_wel f
_Pl ätze
_versch aff
_geb ildet
_count ing
_start en.
_ask s
_klein sten
_gu ess,
_dav or,
_rel iable
_arbeit e,
_Gen en
_gleich ,
_rec re
_schw ach
zie ht,
_why ?
_200 8.
abe led
_lif ted
gram men
enk t,
_erst mal
_6 ,
_zusammen gef
_Ü bung
_bo ot
_kid ney
_gel assen
ym ph
_Aut oren
ließ en.
_min imal
_Hand werk
_"D ies
_met ers.
_Ex empl
_Schw anger
_erzähl ten
_sk al
_reas on.
_bre eding
_cap abilities
_"S e
_cr imin
_Pol it
_int act
_spä ter.
_18 6
_18 00
_pie ce.
_beste hen,
_Grupp en,
_Met han
_fand .
_unglaub liches
_cult ures,
ätz e.
_Untern ehm
_bro ader
_Natur al
_invest ieren.
lichkeit .
_Ever gl
_spiel ten
_frü he
_Em b
_Fähigkeit en.
_ident ity.
_terr ibly
_men 's
_normal es
_individual s,
-d ig
-d imension
_Entscheid ung,
_kenn t.
_"E ine
-G e
_dir ,
_dep enden
_front al
_Bo hr
_techn isch
_Arch itect
_schließ en,
_entdeck t.
_class es
_large -scale
-E xper
_del ay
osp her
_erf and
_aud io
_11 0
_arg uing
_black ,
_planet s.
tend lich
_non profit
_low .
_pattern s.
_bleib t,
_beobach tet,
_fundament ale
_wonderful ,
_ill ust
_ill umin
_Gebäude .
_Wahl ,
_whatever ,
_scre am
_mathemat ische
_consum ed
-p os
_Politik ,
_crit er
_sam pl
_bar r
_ed ges
_Nord amerika
abl en
_reich e
_trust ,
_worth y
_perfe kt.
_Super markt
_flow ing
_"K omm
_verm ute
_einzeln es
_gefähr lichen
_skill s.
_Rel ativ
_conscious ness,
_subject .
_bird s,
_Dor f,
_benötig en.
_Mc K
_compet ing
_unc ons
_extraordin arily
_Bi osphäre
_Kolle gen,
_character istic
_represent ation
_saf ely
_lin es.
_verwand eln,
_organiz ation.
_"R e
_Norm an
_himself ,
_gewalt igen
_Niger ia,
_kre iert
_gestell t,
_someh ow,
_Ma is
_stimm e
_Angel es.
_lieb sten
_Francisc o.
_irgendein en
_jud gment
_Mont ana
_math ,
_vergleich en.
_demonstr ation
_demonstr ated
_shift ing
_Wichtig ste
_camer a.
_Israel i
_infrastruct ure.
_verme iden
_bud d
_lust ig.
_Lad ies
_element ary
_dür fen.
_vermittel n.
_Wikiped ia,
_Sim ulation
_hack ers
_betriff t.
_E-M ails
_observ ed
_kümm ern,
wie gend
_recover y
_simpl er
_Herst eller
_Las er
_Einkommen s
_colon ies
_impress ion
_repräsent iert
_truck s
_umzu gehen.
_Einricht ung
-O r
_cam e,
oler anz
_Oxford ,
_demokrat ische
_tie fen
_Ro hr
bas ierte
_refuge es
_Parte ien
_replac ed
_spezif ischen
_tear s
_chimpanze es
_Wund er,
_U-B oot
_monitor ing
_illustr ate
_Klimawand els
_NGO s
_trop ical
_Alph a
_Motiv ation
_navig ate
_anp assen
_pregn ant
cycl op
ubb les
_frequen cy
_drauß en.
_furth er,
_Initi ative
_Ersch affung
_Gesichts aus
_verlie bt
_ridic ul
_creativ ity,
organis ationen
_hun ting
_Nähr stoff
_Skulpt ur
_acknowled ge
_Connect ic
_Autom obil
brü che
_Tö chter
_Restaur ants
_essent ially,
_getes tet
_kogn itiven
_traject ory
_Autob ahn
_Einzeln en
_unangen ehm
_Produktiv ität
_Wolf ram
_incor por
_Flughaf en
_harn ess
_Proband en
_Seb ast
_cir cl
_Interviewer :
_Sowjet un
_bamb oo
_zugr unde
w esen.
e opard
h eld
m eter
n es
l ob
l angen
D ie
k und
p ür
ü chter
s orge
ö s.
in ens
_t ue,
ch ens
_a irl
_d owntown
_m eld
_m ars
_m isc
as ure
an i
_b ars
_o x
_g h
_g as.
or y,
_f uer
_I cel
_n ap
_S ö
le an
_p ause
_p fle
_A D
_ein b
ig ste
_l agen
_l abeled
_be zeichnet
us el
el te,
el oc
_T able
_T uring
_T elesc
_D onn
_M all
_M uh
_we ’re
ere i,
_you :
_B ert
_B alt
_B row
_B reit
_E ight
il t,
_an h
_an b
ach e,
sch äd
id er,
_F red
_F ull
_K ent
_un besch
_so on,
_so on.
_P ir
_L ü
_L if
_L yn
_L ügen
_L OL
_se ats
_st ürz
_st ore,
_st rok
_st ammen
_er ober
_er setzen
ver ständnis
ag an
_j ahr
uch s,
op us
_" th
_R ing
_R eh
_R und
_R ose
_R itu
_r ice
_r asch
_r ichten
_auf wach
_V aters
ell .
_li vest
_J C:
_sch auen.
ist ory
_C och
_C oke
_me ets
_le gen,
au d
_as leep
_O w
_In f
_St age
_St ille
_ge z
_ge fe
_fr isch
_sh elf
_um dre
_über hol
_über legen
_des ert.
_Wir bel
_de af
_one -
_out ?
_know s,
_Ar ound
_Ar izon
_An zug
_vor gestellt
_her it
_her anz
_mach e.
_mach ten.
_mach ines.
_Al f
_Mensch .
änd e,
ak at
_Re par
_Re ise,
_don or
_Ge ben
_hier bei
_work er
_work plac
ide press
_gl uc
lie d,
ment al
_Ein s,
_Ein heiten
_bet rü
auf nahmen
_Zeit en.
_beg reifen,
_He y
_Gr ön
_Gr ound
_part s,
ord net
_Or ten,
_Or ient
_res ilien
_dam al
ish a
_ad ul
_ad vers
_hin t
_inc ome,
ri arch
_ins ulin
_stud ierte
_human itarian
_Pl atten
_klein e,
_Tag en,
_Bl itz
_Her bst
_zeig e,
rä um
_Ab weich
_feel ,
_Im pro
_brain s,
_geht 's
_understand s
br al
amm a
_bede ckt
atient en
_comple ted
_Wel ches
_Med it
_30 .000
_inst antly
_small er,
_met ric
amp agn
_stor es
_el abor
_care g
_Q uer
_lern t,
_polit ically
_believe .
up s
fall s,
tre ten,
_Am p
_frag en.
_frag ment
_publ ishing
_att itude
-M e
-M us
_govern ance
_Wor t.
_typ isch
_co -
_bekomm t.
_Kre ise
_dist ance,
ähn liche
_Groß eltern
komm un
_billion .
_char ity
_educ ated
_gest arte
_gest ohlen
_fünf ,
_mil es,
_rest rict
_Entwickl ung,
_Kar te.
_Gra b
_Lie der
_Lie be.
_Ber gen
_Wahr heit,
los er
_Patient en.
_Par lament
_writ er
_ant reib
_speak .
fle isch
_bed roh
_connect ion.
_sex ,
_kurz frist
_Bet rach
_mess age.
spr ing
_Lehr er.
_terr ified
_psych ischen
_individual .
_robot ,
-c ost
_Ur ban
_conf igur
_tro ck
_serv ices.
_clear ,
_complex .
_deep ,
_Veränder ung,
_micro RNA
_relig ion.
_Nachricht en.
_Rück meld
bere cht
_14 ,
_dein es
fäll en
_stark ,
leg entlich
_pattern s,
_Gleich zeitig
_zer o.
_Jahrhundert s,
_near est
full y.
_13 ,
_hol te
_architect ure,
_everyone 's
_Fisch e,
_bemerk te,
_Sek unden,
_approach ing
_Männ er.
_Mo der
_Programm ier
_box es
_vol unt
_größten teils
ssystem ,
_langsam .
_Kr imin
_self- organ
_polic y.
_Kat astroph
_1, 500
_"K önn
_Genau .
_Schön e
_Isra el.
_graph ics
_transl ation
_Baum k
_connected .
_threat s
_Arab ic
_terror ism.
_depress ion.
_ine ff
_ine quality
_luck y,
_Spaß ,
_Leist ungen
_Gu atem
_domin ated
_daugh ter,
_fäll t,
_interview ed
_Niger ia.
_enjoy ed
_Ressourc en,
_Del hi
_Fehl er.
_überle bt
_verbind et.
_Inform ation,
_durchschnitt lichen
_won ach
_jemandem ,
_Bein en
_Nam en,
_Schwe iz
_Jer ry
_einzigart ig
_Insel n
_journal ist
_journal ists
thal b
_beeinfluss en,
_decade .
_Kaliforn ien,
_öffentlich er
_Depress ionen
_Laptop s
_erwarte t.
_Kann st
_Air b
_qual ities
_Bevölker ung,
_childhood ,
_scann ing
_fließ t
_wachs enden
_diss ol
_U.K .,
_empower ed
best and
_Verkehr s
[...]
